[UNK]:100
[CLS]:101
[SEP]:102
!:106
':112
,:117
-:118
.:119
?:136
a:143
b:144
c:145
d:146
e:147
f:148
g:149
h:150
i:151
j:152
k:153
l:154
m:155
n:156
o:157
p:158
q:159
r:160
s:161
t:162
u:163
v:164
w:165
x:166
y:167
z:168
一:1651
丁:1652
七:1653
万:1654
丈:1655
三:1656
上:1657
下:1658
不:1659
与:1660
丐:1661
丑:1662
专:1663
且:1664
丕:1665
世:1666
丘:1667
丙:1668
业:1669
丛:1670
东:1671
丝:1672
丞:1673
丟:1674
両:1675
丢:1676
两:1677
严:1678
並:1679
丧:1680
个:1681
丫:1682
中:1683
丰:1684
串:1685
临:1686
丶:1687
丸:1688
丹:1689
为:1690
主:1691
丼:1692
丽:1693
举:1694
乂:1695
乃:1696
久:1697
么:1698
义:1699
之:1700
乌:1701
乍:1702
乎:1703
乏:1704
乐:1705
乒:1706
乓:1707
乔:1708
乖:1709
乗:1710
乘:1711
乙:1712
乜:1713
九:1714
乞:1715
也:1716
习:1717
乡:1718
书:1719
乩:1720
乭:1721
买:1722
乱:1723
乳:1724
乾:1725
亀:1726
亂:1727
了:1728
予:1729
争:1730
事:1731
二:1732
于:1733
亏:1734
云:1735
互:1736
五:1737
井:1738
亘:1739
亙:1740
亚:1741
些:1742
亜:1743
亞:1744
亟:1745
亡:1746
亢:1747
交:1748
亥:1749
亦:1750
产:1751
亨:1752
亩:1753
享:1754
京:1755
亭:1756
亮:1757
亰:1758
亲:1759
亳:1760
亵:1761
亶:1762
人:1763
亻:1764
亿:1765
什:1766
仁:1767
仃:1768
仄:1769
仅:1770
仆:1771
仇:1772
今:1773
介:1774
仍:1775
从:1776
仏:1777
仑:1778
仓:1779
仔:1780
仕:1781
他:1782
仗:1783
付:1784
仙:1785
仝:1786
仞:1787
仟:1788
仡:1789
代:1790
令:1791
以:1792
仪:1793
们:1794
仮:1795
仰:1796
仲:1797
仵:1798
件:1799
价:1800
任:1801
份:1802
仿:1803
企:1804
伉:1805
伊:1806
伋:1807
伍:1808
伎:1809
伏:1810
伐:1811
休:1812
伕:1813
众:1814
优:1815
伙:1816
会:1817
伝:1818
伞:1819
伟:1820
传:1821
伤:1822
伦:1823
伪:1824
伫:1825
伯:1826
估:1827
伴:1828
伶:1829
伷:1830
伸:1831
伺:1832
似:1833
伽:1834
佃:1835
但:1836
佇:1837
佈:1838
佉:1839
位:1840
低:1841
住:1842
佐:1843
佑:1844
体:1845
佔:1846
何:1847
佗:1848
佘:1849
余:1850
佚:1851
佛:1852
作:1853
佞:1854
佟:1855
你:1856
佢:1857
佣:1858
佤:1859
佥:1860
佩:1861
佬:1862
佯:1863
佰:1864
佳:1865
併:1866
佶:1867
佺:1868
佻:1869
佼:1870
佾:1871
使:1872
侂:1873
侃:1874
侄:1875
來:1876
侈:1877
例:1878
侍:1879
侏:1880
侑:1881
侖:1882
侗:1883
侘:1884
供:1885
依:1886
侠:1887
価:1888
侣:1889
侥:1890
侦:1891
侧:1892
侨:1893
侪:1894
侬:1895
侭:1896
侮:1897
侯:1898
侵:1899
侶:1900
侷:1901
便:1902
俁:1903
係:1904
促:1905
俄:1906
俅:1907
俊:1908
俎:1909
俏:1910
俐:1911
俑:1912
俗:1913
俘:1914
俚:1915
保:1916
俞:1917
俟:1918
俠:1919
信:1920
俣:1921
俥:1922
俦:1923
俨:1924
俩:1925
俪:1926
俬:1927
俭:1928
修:1929
俯:1930
俱:1931
俳:1932
俵:1933
俶:1934
俸:1935
俺:1936
俾:1937
倂:1938
倆:1939
倉:1940
個:1941
倍:1942
們:1943
倒:1944
倓:1945
倔:1946
倖:1947
倘:1948
候:1949
倚:1950
倜:1951
借:1952
倡:1953
倣:1954
値:1955
倦:1956
倧:1957
倩:1958
倪:1959
倫:1960
倬:1961
倭:1962
倮:1963
倶:1964
倹:1965
债:1966
倻:1967
值:1968
倾:1969
偁:1970
偃:1971
假:1972
偈:1973
偉:1974
偏:1975
偕:1976
做:1977
停:1978
健:1979
偰:1980
偲:1981
側:1982
偵:1983
偶:1984
偷:1985
偽:1986
偿:1987
傀:1988
傅:1989
傈:1990
傉:1991
傍:1992
傑:1993
傕:1994
傘:1995
備:1996
傚:1997
傢:1998
傣:1999
储:2000
催:2001
傭:2002
傲:2003
傳:2004
債:2005
傷:2006
傻:2007
傾:2008
僅:2009
僉:2010
僊:2011
働:2012
像:2013
僑:2014
僕:2015
僖:2016
僚:2017
僞:2018
僥:2019
僧:2020
僭:2021
僮:2022
僱:2023
僳:2024
僵:2025
價:2026
僻:2027
儀:2028
儁:2029
儂:2030
億:2031
儆:2032
儉:2033
儋:2034
儒:2035
儔:2036
儕:2037
儘:2038
儚:2039
償:2040
儡:2041
優:2042
儲:2043
儷:2044
儸:2045
儺:2046
儼:2047
儿:2048
兀:2049
允:2050
元:2051
兄:2052
充:2053
兆:2054
兇:2055
先:2056
光:2057
克:2058
兌:2059
免:2060
兎:2061
児:2062
兑:2063
兒:2064
兔:2065
兖:2066
兗:2067
党:2068
兜:2069
兢:2070
入:2071
內:2072
全:2073
兩:2074
兪:2075
八:2076
公:2077
六:2078
兮:2079
兰:2080
共:2081
关:2082
兴:2083
兵:2084
其:2085
具:2086
典:2087
兹:2088
养:2089
兼:2090
兽:2091
冀:2092
内:2093
円:2094
冇:2095
冈:2096
冉:2097
冊:2098
册:2099
再:2100
冏:2101
冑:2102
冒:2103
冕:2104
冗:2105
写:2106
军:2107
农:2108
冠:2109
冢:2110
冤:2111
冥:2112
冨:2113
冪:2114
冬:2115
冯:2116
冰:2117
冲:2118
决:2119
冴:2120
况:2121
冶:2122
冷:2123
冻:2124
冼:2125
冽:2126
净:2127
凄:2128
准:2129
凈:2130
凉:2131
凊:2132
凋:2133
凌:2134
凍:2135
减:2136
凑:2137
凖:2138
凛:2139
凜:2140
凝:2141
几:2142
凡:2143
凤:2144
処:2145
凧:2146
凪:2147
凫:2148
凭:2149
凯:2150
凰:2151
凱:2152
凳:2153
凶:2154
凸:2155
凹:2156
出:2157
击:2158
凼:2159
函:2160
凿:2161
刀:2162
刁:2163
刃:2164
分:2165
切:2166
刈:2167
刊:2168
刍:2169
刎:2170
刑:2171
划:2172
列:2173
刘:2174
则:2175
刚:2176
创:2177
初:2178
删:2179
判:2180
別:2181
刨:2182
利:2183
刪:2184
别:2185
刮:2186
到:2187
刳:2188
制:2189
刷:2190
券:2191
刹:2192
刺:2193
刻:2194
刽:2195
剁:2196
剂:2197
剃:2198
則:2199
削:2200
剋:2201
剌:2202
前:2203
剎:2204
剑:2205
剔:2206
剖:2207
剛:2208
剝:2209
剡:2210
剣:2211
剤:2212
剥:2213
剧:2214
剩:2215
剪:2216
副:2217
剰:2218
剱:2219
割:2220
創:2221
剷:2222
剽:2223
剿:2224
劃:2225
劇:2226
劈:2227
劉:2228
劊:2229
劍:2230
劑:2231
劔:2232
力:2233
劝:2234
办:2235
功:2236
加:2237
务:2238
劢:2239
劣:2240
动:2241
助:2242
努:2243
劫:2244
劭:2245
励:2246
劲:2247
劳:2248
労:2249
劵:2250
効:2251
劻:2252
劾:2253
势:2254
勁:2255
勃:2256
勅:2257
勇:2258
勉:2259
勋:2260
勐:2261
勒:2262
勔:2263
動:2264
勖:2265
勗:2266
勘:2267
務:2268
勛:2269
勝:2270
勞:2271
募:2272
勢:2273
勣:2274
勤:2275
勧:2276
勰:2277
勱:2278
勲:2279
勳:2280
勵:2281
勸:2282
勺:2283
勻:2284
勾:2285
勿:2286
匀:2287
匁:2288
匂:2289
包:2290
匆:2291
匈:2292
匍:2293
匏:2294
匐:2295
匕:2296
化:2297
北:2298
匙:2299
匝:2300
匠:2301
匡:2302
匣:2303
匪:2304
匮:2305
匯:2306
匱:2307
匹:2308
区:2309
医:2310
匾:2311
匿:2312
區:2313
十:2314
千:2315
卅:2316
升:2317
午:2318
卉:2319
半:2320
卍:2321
华:2322
协:2323
卐:2324
卑:2325
卒:2326
卓:2327
協:2328
单:2329
卖:2330
南:2331
単:2332
博:2333
卜:2334
卞:2335
卟:2336
占:2337
卡:2338
卢:2339
卤:2340
卦:2341
卧:2342
卫:2343
卬:2344
卯:2345
印:2346
危:2347
即:2348
却:2349
卵:2350
卷:2351
卸:2352
卹:2353
卻:2354
卽:2355
卿:2356
厂:2357
厄:2358
厅:2359
历:2360
厉:2361
压:2362
厌:2363
厓:2364
厔:2365
厕:2366
厘:2367
厚:2368
厝:2369
原:2370
厢:2371
厥:2372
厦:2373
厨:2374
厩:2375
厭:2376
厮:2377
厲:2378
厳:2379
去:2380
县:2381
叁:2382
参:2383
參:2384
叄:2385
又:2386
叉:2387
及:2388
友:2389
双:2390
反:2391
収:2392
发:2393
叔:2394
取:2395
受:2396
变:2397
叙:2398
叛:2399
叟:2400
叠:2401
叡:2402
叢:2403
口:2404
古:2405
句:2406
另:2407
叨:2408
叩:2409
只:2410
叫:2411
召:2412
叭:2413
叮:2414
可:2415
台:2416
叱:2417
史:2418
右:2419
叶:2420
号:2421
司:2422
叹:2423
叻:2424
叼:2425
吁:2426
吃:2427
各:2428
合:2429
吉:2430
吊:2431
吋:2432
同:2433
名:2434
后:2435
吏:2436
吐:2437
向:2438
吒:2439
吓:2440
吕:2441
吗:2442
君:2443
吝:2444
吞:2445
吟:2446
吠:2447
吡:2448
否:2449
吧:2450
吨:2451
吩:2452
含:2453
听:2454
吮:2455
启:2456
吱:2457
吲:2458
吳:2459
吴:2460
吵:2461
吶:2462
吸:2463
吹:2464
吻:2465
吼:2466
吽:2467
吾:2468
呀:2469
呂:2470
呃:2471
呆:2472
呈:2473
呉:2474
告:2475
呋:2476
呎:2477
呐:2478
呑:2479
呕:2480
呗:2481
员:2482
呛:2483
呜:2484
呟:2485
呢:2486
呤:2487
呦:2488
周:2489
呪:2490
呱:2491
味:2492
呵:2493
呷:2494
呻:2495
呼:2496
命:2497
咀:2498
咁:2499
咄:2500
咆:2501
咋:2502
和:2503
咎:2504
咏:2505
咐:2506
咒:2507
咔:2508
咕:2509
咖:2510
咗:2511
咙:2512
咚:2513
咤:2514
咥:2515
咧:2516
咨:2517
咩:2518
咪:2519
咫:2520
咬:2521
咭:2522
咯:2523
咱:2524
咲:2525
咳:2526
咸:2527
咽:2528
咿:2529
哀:2530
品:2531
哂:2532
哄:2533
哆:2534
哇:2535
哈:2536
哉:2537
哋:2538
哌:2539
响:2540
哎:2541
哏:2542
哑:2543
哒:2544
哔:2545
哗:2546
哙:2547
哚:2548
哟:2549
員:2550
哥:2551
哦:2552
哨:2553
哩:2554
哪:2555
哭:2556
哮:2557
哲:2558
哺:2559
哼:2560
哽:2561
唁:2562
唄:2563
唆:2564
唇:2565
唎:2566
唐:2567
唑:2568
唔:2569
唖:2570
唛:2571
唢:2572
唤:2573
唧:2574
唬:2575
唭:2576
售:2577
唯:2578
唱:2579
唵:2580
唷:2581
唸:2582
唾:2583
啃:2584
啄:2585
商:2586
啉:2587
啊:2588
問:2589
啓:2590
啖:2591
啜:2592
啞:2593
啟:2594
啡:2595
啤:2596
啥:2597
啦:2598
啪:2599
啬:2600
啮:2601
啰:2602
啲:2603
啶:2604
啸:2605
啼:2606
啾:2607
喀:2608
喂:2609
喃:2610
善:2611
喆:2612
喇:2613
喉:2614
喊:2615
喋:2616
喔:2617
喘:2618
喙:2619
喚:2620
喜:2621
喝:2622
喧:2623
喩:2624
喪:2625
喫:2626
喬:2627
單:2628
喰:2629
喱:2630
喲:2631
喵:2632
営:2633
喷:2634
喹:2635
喺:2636
喻:2637
嗅:2638
嗆:2639
嗇:2640
嗎:2641
嗓:2642
嗔:2643
嗚:2644
嗜:2645
嗝:2646
嗟:2647
嗡:2648
嗣:2649
嗤:2650
嗨:2651
嗩:2652
嗪:2653
嗯:2654
嗲:2655
嗶:2656
嗽:2657
嘅:2658
嘆:2659
嘈:2660
嘉:2661
嘌:2662
嘎:2663
嘏:2664
嘔:2665
嘗:2666
嘘:2667
嘛:2668
嘜:2669
嘟:2670
嘢:2671
嘧:2672
嘩:2673
嘯:2674
嘱:2675
嘲:2676
嘴:2677
嘶:2678
嘹:2679
嘻:2680
嘿:2681
噁:2682
噂:2683
噌:2684
噏:2685
噓:2686
噗:2687
噛:2688
噜:2689
噠:2690
噢:2691
噤:2692
器:2693
噩:2694
噪:2695
噫:2696
噬:2697
噱:2698
噲:2699
噴:2700
噶:2701
噸:2702
噹:2703
噺:2704
噻:2705
嚆:2706
嚇:2707
嚈:2708
嚎:2709
嚏:2710
嚐:2711
嚕:2712
嚙:2713
嚟:2714
嚢:2715
嚣:2716
嚥:2717
嚨:2718
嚮:2719
嚴:2720
嚷:2721
嚼:2722
囁:2723
囂:2724
囃:2725
囉:2726
囊:2727
囍:2728
囑:2729
囓:2730
囗:2731
囚:2732
四:2733
囝:2734
回:2735
因:2736
囡:2737
团:2738
団:2739
囤:2740
囧:2741
囪:2742
园:2743
囮:2744
困:2745
囱:2746
囲:2747
図:2748
围:2749
固:2750
国:2751
图:2752
囿:2753
圀:2754
圃:2755
圆:2756
圈:2757
圉:2758
國:2759
圍:2760
圏:2761
園:2762
圓:2763
圖:2764
團:2765
圜:2766
土:2767
圣:2768
圧:2769
在:2770
圩:2771
圪:2772
圭:2773
圮:2774
圯:2775
地:2776
圳:2777
圹:2778
场:2779
圻:2780
圾:2781
址:2782
坂:2783
均:2784
坊:2785
坌:2786
坍:2787
坎:2788
坏:2789
坐:2790
坑:2791
块:2792
坚:2793
坛:2794
坜:2795
坝:2796
坞:2797
坟:2798
坠:2799
坡:2800
坤:2801
坦:2802
坨:2803
坩:2804
坪:2805
坬:2806
坭:2807
坯:2808
坳:2809
坵:2810
坷:2811
坻:2812
垂:2813
垃:2814
垄:2815
垅:2816
垈:2817
型:2818
垌:2819
垒:2820
垓:2821
垕:2822
垚:2823
垛:2824
垟:2825
垠:2826
垡:2827
垢:2828
垣:2829
垦:2830
垩:2831
垫:2832
垭:2833
垮:2834
垴:2835
垵:2836
垸:2837
埂:2838
埃:2839
埈:2840
埋:2841
城:2842
埏:2843
埒:2844
埔:2845
埕:2846
埗:2847
埙:2848
埜:2849
埝:2850
域:2851
埠:2852
埡:2853
埤:2854
埭:2855
埴:2856
埵:2857
執:2858
埸:2859
培:2860
基:2861
埼:2862
堀:2863
堂:2864
堃:2865
堅:2866
堆:2867
堇:2868
堉:2869
堊:2870
堑:2871
堕:2872
堝:2873
堞:2874
堡:2875
堤:2876
堪:2877
堯:2878
堰:2879
報:2880
場:2881
堵:2882
堺:2883
塀:2884
塁:2885
塊:2886
塋:2887
塌:2888
塑:2889
塔:2890
塗:2891
塘:2892
塙:2893
塚:2894
塞:2895
塡:2896
塢:2897
塩:2898
填:2899
塬:2900
塭:2901
塱:2902
塵:2903
塹:2904
塽:2905
塾:2906
墀:2907
境:2908
墅:2909
墉:2910
墊:2911
墓:2912
墕:2913
増:2914
墘:2915
墙:2916
墜:2917
增:2918
墟:2919
墨:2920
墩:2921
墬:2922
墮:2923
墳:2924
墺:2925
墻:2926
墾:2927
壁:2928
壅:2929
壆:2930
壇:2931
壊:2932
壌:2933
壑:2934
壓:2935
壕:2936
壘:2937
壙:2938
壞:2939
壟:2940
壠:2941
壢:2942
壤:2943
壩:2944
士:2945
壬:2946
壮:2947
壯:2948
声:2949
壱:2950
売:2951
壳:2952
壶:2953
壷:2954
壹:2955
壺:2956
壽:2957
处:2958
备:2959
変:2960
复:2961
夏:2962
夔:2963
夕:2964
外:2965
夙:2966
多:2967
夜:2968
够:2969
夠:2970
夢:2971
夤:2972
夥:2973
大:2974
天:2975
太:2976
夫:2977
夭:2978
央:2979
夯:2980
失:2981
头:2982
夷:2983
夸:2984
夹:2985
夺:2986
夼:2987
夾:2988
奂:2989
奄:2990
奇:2991
奈:2992
奉:2993
奋:2994
奎:2995
奏:2996
奐:2997
契:2998
奔:2999
奕:3000
奖:3001
套:3002
奘:3003
奚:3004
奠:3005
奢:3006
奥:3007
奧:3008
奨:3009
奪:3010
奬:3011
奭:3012
奮:3013
女:3014
奴:3015
奶:3016
奸:3017
她:3018
好:3019
如:3020
妃:3021
妄:3022
妆:3023
妇:3024
妈:3025
妊:3026
妍:3027
妒:3028
妓:3029
妖:3030
妙:3031
妝:3032
妞:3033
妣:3034
妤:3035
妥:3036
妨:3037
妫:3038
妬:3039
妮:3040
妲:3041
妳:3042
妹:3043
妻:3044
妾:3045
姆:3046
姉:3047
姊:3048
始:3049
姍:3050
姐:3051
姑:3052
姒:3053
姓:3054
委:3055
姗:3056
姚:3057
姜:3058
姝:3059
姣:3060
姥:3061
姦:3062
姨:3063
姪:3064
姫:3065
姬:3066
姵:3067
姶:3068
姻:3069
姿:3070
威:3071
娃:3072
娄:3073
娅:3074
娆:3075
娇:3076
娉:3077
娑:3078
娓:3079
娘:3080
娛:3081
娜:3082
娟:3083
娠:3084
娣:3085
娥:3086
娩:3087
娯:3088
娱:3089
娲:3090
娴:3091
娶:3092
娼:3093
婁:3094
婆:3095
婉:3096
婕:3097
婚:3098
婢:3099
婦:3100
婧:3101
婪:3102
婬:3103
婭:3104
婴:3105
婵:3106
婶:3107
婷:3108
婺:3109
婿:3110
媒:3111
媚:3112
媛:3113
媞:3114
媧:3115
媯:3116
媲:3117
媳:3118
媽:3119
媾:3120
嫁:3121
嫂:3122
嫄:3123
嫉:3124
嫌:3125
嫔:3126
嫖:3127
嫗:3128
嫚:3129
嫡:3130
嫣:3131
嫦:3132
嫩:3133
嫻:3134
嬅:3135
嬈:3136
嬉:3137
嬋:3138
嬌:3139
嬖:3140
嬗:3141
嬛:3142
嬢:3143
嬤:3144
嬪:3145
嬬:3146
嬰:3147
嬲:3148
嬴:3149
嬷:3150
嬸:3151
嬿:3152
孀:3153
孃:3154
子:3155
孑:3156
孔:3157
孕:3158
孖:3159
字:3160
存:3161
孙:3162
孚:3163
孛:3164
孜:3165
孝:3166
孟:3167
孢:3168
季:3169
孤:3170
学:3171
孩:3172
孪:3173
孫:3174
孰:3175
孱:3176
孳:3177
孵:3178
學:3179
孺:3180
孽:3181
孿:3182
宀:3183
宁:3184
它:3185
宅:3186
宇:3187
守:3188
安:3189
宋:3190
完:3191
宍:3192
宏:3193
宓:3194
宕:3195
宗:3196
官:3197
宙:3198
定:3199
宛:3200
宜:3201
宝:3202
实:3203
実:3204
宠:3205
审:3206
客:3207
宣:3208
室:3209
宥:3210
宦:3211
宪:3212
宫:3213
宮:3214
宰:3215
害:3216
宴:3217
宵:3218
家:3219
宸:3220
容:3221
宽:3222
宾:3223
宿:3224
寂:3225
寄:3226
寅:3227
密:3228
寇:3229
富:3230
寐:3231
寒:3232
寓:3233
寔:3234
寘:3235
寛:3236
寝:3237
寞:3238
察:3239
寡:3240
寢:3241
寥:3242
實:3243
寧:3244
寨:3245
審:3246
寫:3247
寬:3248
寮:3249
寯:3250
寰:3251
寳:3252
寵:3253
寶:3254
寸:3255
对:3256
寺:3257
寻:3258
导:3259
対:3260
寿:3261
封:3262
専:3263
射:3264
将:3265
將:3266
專:3267
尉:3268
尊:3269
尋:3270
對:3271
導:3272
小:3273
少:3274
尔:3275
尕:3276
尖:3277
尘:3278
尙:3279
尚:3280
尝:3281
尤:3282
尧:3283
尪:3284
尬:3285
尭:3286
就:3287
尴:3288
尷:3289
尸:3290
尹:3291
尺:3292
尻:3293
尼:3294
尽:3295
尾:3296
尿:3297
局:3298
屁:3299
层:3300
居:3301
屆:3302
屈:3303
届:3304
屋:3305
屌:3306
屍:3307
屎:3308
屏:3309
屐:3310
屑:3311
屓:3312
展:3313
属:3314
屠:3315
屡:3316
屢:3317
層:3318
履:3319
屬:3320
屯:3321
山:3322
屹:3323
屿:3324
岀:3325
岁:3326
岂:3327
岌:3328
岐:3329
岑:3330
岔:3331
岖:3332
岗:3333
岘:3334
岙:3335
岚:3336
岛:3337
岡:3338
岢:3339
岩:3340
岫:3341
岬:3342
岭:3343
岱:3344
岳:3345
岷:3346
岸:3347
峁:3348
峄:3349
峇:3350
峋:3351
峒:3352
峙:3353
峠:3354
峡:3355
峤:3356
峥:3357
峦:3358
峨:3359
峩:3360
峪:3361
峭:3362
峯:3363
峰:3364
峴:3365
島:3366
峻:3367
峽:3368
崁:3369
崂:3370
崆:3371
崇:3372
崋:3373
崍:3374
崎:3375
崐:3376
崑:3377
崔:3378
崖:3379
崗:3380
崙:3381
崚:3382
崛:3383
崞:3384
崢:3385
崤:3386
崧:3387
崩:3388
崭:3389
崮:3390
崱:3391
崴:3392
崽:3393
嵇:3394
嵊:3395
嵋:3396
嵌:3397
嵐:3398
嵘:3399
嵙:3400
嵜:3401
嵩:3402
嵬:3403
嵯:3404
嵴:3405
嶂:3406
嶄:3407
嶇:3408
嶋:3409
嶌:3410
嶗:3411
嶙:3412
嶝:3413
嶠:3414
嶧:3415
嶴:3416
嶷:3417
嶸:3418
嶺:3419
嶼:3420
嶽:3421
巂:3422
巅:3423
巌:3424
巍:3425
巒:3426
巔:3427
巖:3428
川:3429
州:3430
巡:3431
巢:3432
巣:3433
工:3434
左:3435
巧:3436
巨:3437
巩:3438
巫:3439
差:3440
己:3441
已:3442
巳:3443
巴:3444
巷:3445
巻:3446
巽:3447
巾:3448
巿:3449
币:3450
市:3451
布:3452
帅:3453
帆:3454
师:3455
希:3456
帐:3457
帑:3458
帕:3459
帖:3460
帘:3461
帙:3462
帚:3463
帛:3464
帜:3465
帝:3466
帥:3467
带:3468
帧:3469
師:3470
席:3471
帮:3472
帯:3473
帰:3474
帳:3475
帶:3476
帷:3477
常:3478
帼:3479
帽:3480
幀:3481
幂:3482
幄:3483
幅:3484
幇:3485
幌:3486
幔:3487
幕:3488
幗:3489
幟:3490
幡:3491
幢:3492
幣:3493
幪:3494
幫:3495
干:3496
平:3497
年:3498
并:3499
幷:3500
幸:3501
幹:3502
幺:3503
幻:3504
幼:3505
幽:3506
幾:3507
广:3508
庁:3509
広:3510
庄:3511
庆:3512
庇:3513
床:3514
序:3515
庐:3516
庑:3517
库:3518
应:3519
底:3520
庖:3521
店:3522
庙:3523
庚:3524
府:3525
庞:3526
废:3527
庠:3528
庥:3529
度:3530
座:3531
庫:3532
庭:3533
庵:3534
庶:3535
康:3536
庸:3537
庹:3538
庾:3539
廁:3540
廂:3541
廃:3542
廄:3543
廆:3544
廈:3545
廉:3546
廊:3547
廍:3548
廓:3549
廖:3550
廙:3551
廚:3552
廝:3553
廞:3554
廟:3555
廠:3556
廡:3557
廢:3558
廣:3559
廨:3560
廩:3561
廪:3562
廬:3563
廳:3564
延:3565
廷:3566
廸:3567
建:3568
廻:3569
廼:3570
廿:3571
开:3572
弁:3573
异:3574
弃:3575
弄:3576
弇:3577
弈:3578
弉:3579
弊:3580
弋:3581
弌:3582
式:3583
弐:3584
弑:3585
弒:3586
弓:3587
弔:3588
引:3589
弖:3590
弗:3591
弘:3592
弛:3593
弟:3594
张:3595
弢:3596
弥:3597
弦:3598
弧:3599
弩:3600
弭:3601
弯:3602
弱:3603
張:3604
強:3605
弹:3606
强:3607
弼:3608
弾:3609
彀:3610
彅:3611
彈:3612
彊:3613
彌:3614
彎:3615
归:3616
当:3617
录:3618
彗:3619
彘:3620
彙:3621
彝:3622
彡:3623
形:3624
彤:3625
彥:3626
彦:3627
彧:3628
彩:3629
彪:3630
彫:3631
彬:3632
彭:3633
彰:3634
影:3635
彳:3636
彷:3637
役:3638
彻:3639
彼:3640
彿:3641
往:3642
征:3643
徂:3644
径:3645
待:3646
徇:3647
很:3648
徊:3649
律:3650
後:3651
徐:3652
徑:3653
徒:3654
従:3655
徕:3656
得:3657
徘:3658
徙:3659
從:3660
徠:3661
御:3662
徨:3663
復:3664
循:3665
徬:3666
徭:3667
微:3668
徳:3669
徴:3670
徵:3671
德:3672
徹:3673
徽:3674
心:3675
忄:3676
必:3677
忆:3678
忉:3679
忌:3680
忍:3681
忏:3682
忒:3683
志:3684
忘:3685
忙:3686
応:3687
忞:3688
忠:3689
忡:3690
忤:3691
忧:3692
快:3693
忱:3694
念:3695
忻:3696
忽:3697
忿:3698
怀:3699
态:3700
怂:3701
怎:3702
怒:3703
怕:3704
怖:3705
怙:3706
怛:3707
怜:3708
思:3709
怠:3710
怡:3711
急:3712
怦:3713
性:3714
怨:3715
怪:3716
怯:3717
总:3718
怿:3719
恂:3720
恃:3721
恆:3722
恋:3723
恍:3724
恐:3725
恒:3726
恕:3727
恙:3728
恚:3729
恢:3730
恣:3731
恤:3732
恥:3733
恨:3734
恩:3735
恪:3736
恫:3737
恬:3738
恭:3739
息:3740
恰:3741
恳:3742
恵:3743
恶:3744
恸:3745
恺:3746
恼:3747
恽:3748
恿:3749
悄:3750
悅:3751
悉:3752
悌:3753
悍:3754
悔:3755
悖:3756
悚:3757
悛:3758
悝:3759
悟:3760
悠:3761
患:3762
悦:3763
悧:3764
您:3765
悩:3766
悪:3767
悫:3768
悬:3769
悯:3770
悰:3771
悲:3772
悳:3773
悴:3774
悶:3775
悸:3776
悼:3777
悽:3778
情:3779
惇:3780
惊:3781
惋:3782
惑:3783
惕:3784
惘:3785
惚:3786
惛:3787
惜:3788
惟:3789
惠:3790
惡:3791
惣:3792
惧:3793
惨:3794
惩:3795
惫:3796
惭:3797
惮:3798
惯:3799
惰:3800
惱:3801
惲:3802
想:3803
惶:3804
惹:3805
惺:3806
愁:3807
愃:3808
愆:3809
愈:3810
愉:3811
愍:3812
愎:3813
意:3814
愔:3815
愕:3816
愚:3817
愛:3818
感:3819
愤:3820
愧:3821
愨:3822
愫:3823
愴:3824
愷:3825
愼:3826
愾:3827
愿:3828
慄:3829
慇:3830
慈:3831
態:3832
慌:3833
慎:3834
慑:3835
慕:3836
慘:3837
慚:3838
慜:3839
慟:3840
慢:3841
慣:3842
慤:3843
慧:3844
慨:3845
慫:3846
慮:3847
慰:3848
慳:3849
慵:3850
慶:3851
慷:3852
慾:3853
憂:3854
憊:3855
憍:3856
憎:3857
憐:3858
憑:3859
憔:3860
憙:3861
憚:3862
憤:3863
憧:3864
憨:3865
憩:3866
憫:3867
憬:3868
憲:3869
憶:3870
憺:3871
憾:3872
懂:3873
懃:3874
懇:3875
懈:3876
應:3877
懊:3878
懋:3879
懌:3880
懐:3881
懒:3882
懦:3883
懲:3884
懵:3885
懶:3886
懷:3887
懸:3888
懺:3889
懼:3890
懾:3891
懿:3892
戀:3893
戈:3894
戊:3895
戌:3896
戍:3897
戎:3898
戏:3899
成:3900
我:3901
戒:3902
戔:3903
戕:3904
或:3905
战:3906
戚:3907
戛:3908
戟:3909
戡:3910
戢:3911
戦:3912
戩:3913
截:3914
戮:3915
戯:3916
戰:3917
戱:3918
戲:3919
戳:3920
戴:3921
戶:3922
户:3923
戸:3924
戻:3925
戾:3926
房:3927
所:3928
扁:3929
扆:3930
扇:3931
扈:3932
扉:3933
手:3934
扌:3935
才:3936
扎:3937
扑:3938
扒:3939
打:3940
扔:3941
払:3942
托:3943
扛:3944
扣:3945
扦:3946
执:3947
扩:3948
扫:3949
扬:3950
扭:3951
扮:3952
扯:3953
扰:3954
扱:3955
扳:3956
扶:3957
批:3958
扼:3959
找:3960
承:3961
技:3962
抄:3963
抉:3964
把:3965
抑:3966
抒:3967
抓:3968
投:3969
抖:3970
抗:3971
折:3972
抚:3973
抛:3974
抜:3975
択:3976
抟:3977
抡:3978
抢:3979
护:3980
报:3981
抨:3982
披:3983
抬:3984
抱:3985
抵:3986
抹:3987
押:3988
抽:3989
拂:3990
担:3991
拆:3992
拇:3993
拈:3994
拉:3995
拋:3996
拌:3997
拍:3998
拏:3999
拐:4000
拒:4001
拓:4002
拔:4003
拖:4004
拗:4005
拘:4006
拙:4007
拚:4008
招:4009
拜:4010
拝:4011
拟:4012
拠:4013
拡:4014
拢:4015
拣:4016
拥:4017
拦:4018
拨:4019
择:4020
括:4021
拭:4022
拮:4023
拯:4024
拱:4025
拳:4026
拴:4027
拵:4028
拶:4029
拷:4030
拼:4031
拽:4032
拾:4033
拿:4034
持:4035
挂:4036
指:4037
挈:4038
按:4039
挑:4040
挖:4041
挙:4042
挚:4043
挛:4044
挝:4045
挞:4046
挟:4047
挠:4048
挡:4049
挣:4050
挤:4051
挥:4052
挨:4053
挪:4054
挫:4055
振:4056
挹:4057
挺:4058
挽:4059
挾:4060
挿:4061
捅:4062
捆:4063
捉:4064
捌:4065
捍:4066
捎:4067
捏:4068
捐:4069
捒:4070
捕:4071
捗:4072
捜:4073
捞:4074
损:4075
捡:4076
换:4077
捣:4078
捧:4079
捨:4080
捩:4081
据:4082
捱:4083
捲:4084
捶:4085
捷:4086
捺:4087
捻:4088
掀:4089
掃:4090
授:4091
掉:4092
掌:4093
掏:4094
掐:4095
排:4096
掖:4097
掘:4098
掙:4099
掛:4100
掟:4101
掠:4102
採:4103
探:4104
掣:4105
接:4106
控:4107
推:4108
掩:4109
措:4110
掬:4111
掰:4112
掲:4113
掳:4114
掴:4115
掷:4116
掸:4117
掺:4118
掻:4119
掾:4120
揀:4121
揃:4122
揄:4123
揆:4124
揉:4125
揍:4126
描:4127
提:4128
插:4129
揖:4130
揚:4131
換:4132
握:4133
揣:4134
揪:4135
揭:4136
揮:4137
援:4138
揶:4139
揺:4140
揽:4141
揾:4142
搁:4143
搅:4144
損:4145
搏:4146
搐:4147
搓:4148
搔:4149
搖:4150
搗:4151
搜:4152
搞:4153
搦:4154
搪:4155
搬:4156
搭:4157
搵:4158
搶:4159
携:4160
搾:4161
摂:4162
摄:4163
摆:4164
摇:4165
摊:4166
摑:4167
摒:4168
摔:4169
摘:4170
摠:4171
摧:4172
摩:4173
摭:4174
摯:4175
摶:4176
摸:4177
摹:4178
摺:4179
摻:4180
撃:4181
撇:4182
撈:4183
撐:4184
撑:4185
撒:4186
撓:4187
撕:4188
撚:4189
撞:4190
撣:4191
撤:4192
撥:4193
撩:4194
撫:4195
撬:4196
播:4197
撮:4198
撰:4199
撲:4200
撷:4201
撹:4202
撻:4203
撼:4204
撿:4205
擁:4206
擂:4207
擄:4208
擅:4209
擇:4210
擊:4211
擋:4212
操:4213
擎:4214
擒:4215
擔:4216
擘:4217
據:4218
擠:4219
擢:4220
擦:4221
擧:4222
擬:4223
擱:4224
擲:4225
擴:4226
擷:4227
擺:4228
擾:4229
攀:4230
攏:4231
攒:4232
攔:4233
攘:4234
攜:4235
攝:4236
攢:4237
攣:4238
攤:4239
攪:4240
攫:4241
攬:4242
支:4243
收:4244
攷:4245
攸:4246
改:4247
攻:4248
放:4249
政:4250
故:4251
效:4252
敌:4253
敍:4254
敎:4255
敏:4256
救:4257
敕:4258
敖:4259
敗:4260
敘:4261
教:4262
敛:4263
敝:4264
敞:4265
敢:4266
散:4267
敦:4268
敬:4269
数:4270
敲:4271
整:4272
敵:4273
敷:4274
數:4275
斂:4276
斃:4277
文:4278
斉:4279
斋:4280
斌:4281
斎:4282
斐:4283
斑:4284
斗:4285
料:4286
斛:4287
斜:4288
斟:4289
斡:4290
斤:4291
斥:4292
斧:4293
斩:4294
斫:4295
斬:4296
断:4297
斯:4298
新:4299
斷:4300
方:4301
於:4302
施:4303
旁:4304
旃:4305
旅:4306
旋:4307
旌:4308
族:4309
旒:4310
旗:4311
旛:4312
无:4313
既:4314
旣:4315
日:4316
旦:4317
旧:4318
旨:4319
早:4320
旬:4321
旭:4322
旱:4323
时:4324
旷:4325
旸:4326
旺:4327
旻:4328
旼:4329
昀:4330
昂:4331
昆:4332
昇:4333
昉:4334
昊:4335
昌:4336
明:4337
昏:4338
昐:4339
易:4340
昔:4341
昕:4342
昙:4343
昝:4344
昞:4345
星:4346
映:4347
春:4348
昧:4349
昨:4350
昪:4351
昭:4352
是:4353
昰:4354
昱:4355
昴:4356
昵:4357
昶:4358
昺:4359
昼:4360
显:4361
晁:4362
時:4363
晃:4364
晄:4365
晉:4366
晋:4367
晏:4368
晒:4369
晓:4370
晔:4371
晕:4372
晖:4373
晗:4374
晙:4375
晚:4376
晝:4377
晞:4378
晟:4379
晤:4380
晦:4381
晧:4382
晨:4383
晩:4384
普:4385
景:4386
晰:4387
晳:4388
晴:4389
晶:4390
晷:4391
晸:4392
智:4393
晾:4394
暁:4395
暂:4396
暄:4397
暇:4398
暈:4399
暉:4400
暌:4401
暎:4402
暐:4403
暑:4404
暖:4405
暗:4406
暘:4407
暝:4408
暠:4409
暢:4410
暦:4411
暧:4412
暨:4413
暫:4414
暮:4415
暱:4416
暲:4417
暴:4418
暹:4419
暻:4420
暾:4421
曄:4422
曆:4423
曇:4424
曉:4425
曖:4426
曙:4427
曜:4428
曝:4429
曠:4430
曦:4431
曩:4432
曬:4433
曰:4434
曲:4435
曳:4436
更:4437
曷:4438
書:4439
曹:4440
曺:4441
曼:4442
曽:4443
曾:4444
替:4445
最:4446
會:4447
月:4448
有:4449
朋:4450
服:4451
朐:4452
朓:4453
朔:4454
朕:4455
朗:4456
望:4457
朝:4458
期:4459
朦:4460
朧:4461
木:4462
未:4463
末:4464
本:4465
札:4466
朮:4467
术:4468
朱:4469
朴:4470
朵:4471
朶:4472
机:4473
朽:4474
杀:4475
杂:4476
权:4477
杆:4478
杉:4479
杌:4480
李:4481
杏:4482
材:4483
村:4484
杓:4485
杖:4486
杙:4487
杜:4488
杞:4489
束:4490
杠:4491
条:4492
杢:4493
杣:4494
来:4495
杨:4496
杭:4497
杮:4498
杯:4499
杰:4500
東:4501
杲:4502
杳:4503
杵:4504
杷:4505
杼:4506
松:4507
板:4508
极:4509
构:4510
枇:4511
枉:4512
枋:4513
析:4514
枕:4515
林:4516
枚:4517
果:4518
枝:4519
枞:4520
枠:4521
枡:4522
枢:4523
枣:4524
枪:4525
枫:4526
枭:4527
枯:4528
枳:4529
架:4530
枷:4531
枸:4532
枹:4533
柁:4534
柃:4535
柄:4536
柊:4537
柏:4538
某:4539
柑:4540
柒:4541
染:4542
柔:4543
柘:4544
柚:4545
柜:4546
柝:4547
柞:4548
柠:4549
柢:4550
查:4551
柩:4552
柬:4553
柯:4554
柱:4555
柳:4556
柴:4557
柵:4558
査:4559
柽:4560
柾:4561
柿:4562
栂:4563
栃:4564
栄:4565
栅:4566
标:4567
栈:4568
栉:4569
栋:4570
栎:4571
栏:4572
树:4573
栒:4574
栓:4575
栖:4576
栗:4577
栞:4578
校:4579
栢:4580
栩:4581
株:4582
栱:4583
栲:4584
栴:4585
样:4586
核:4587
根:4588
栻:4589
格:4590
栽:4591
栾:4592
桀:4593
桁:4594
桂:4595
桃:4596
桅:4597
框:4598
案:4599
桉:4600
桌:4601
桎:4602
桐:4603
桑:4604
桓:4605
桔:4606
桜:4607
桝:4608
桟:4609
桡:4610
桢:4611
档:4612
桥:4613
桦:4614
桧:4615
桨:4616
桩:4617
桫:4618
桶:4619
桷:4620
桿:4621
梁:4622
梃:4623
梅:4624
梆:4625
梓:4626
梔:4627
梗:4628
條:4629
梟:4630
梠:4631
梢:4632
梦:4633
梧:4634
梨:4635
梭:4636
梯:4637
械:4638
梱:4639
梳:4640
梵:4641
梶:4642
检:4643
棂:4644
棄:4645
棉:4646
棋:4647
棍:4648
棒:4649
棕:4650
棗:4651
棘:4652
棚:4653
棟:4654
棠:4655
棣:4656
棧:4657
棨:4658
棫:4659
森:4660
棱:4661
棲:4662
棵:4663
棹:4664
棺:4665
棻:4666
椀:4667
椁:4668
椅:4669
椋:4670
植:4671
椎:4672
椏:4673
椒:4674
椙:4675
椚:4676
椛:4677
検:4678
椭:4679
椰:4680
椴:4681
椹:4682
椽:4683
椿:4684
楂:4685
楊:4686
楓:4687
楔:4688
楕:4689
楙:4690
楚:4691
楝:4692
楞:4693
楠:4694
楡:4695
楢:4696
楣:4697
楨:4698
楫:4699
業:4700
楮:4701
楯:4702
楳:4703
極:4704
楷:4705
楸:4706
楹:4707
楼:4708
楽:4709
概:4710
榄:4711
榆:4712
榈:4713
榉:4714
榊:4715
榎:4716
榑:4717
榔:4718
榕:4719
榖:4720
榘:4721
榛:4722
榜:4723
榧:4724
榨:4725
榫:4726
榭:4727
榮:4728
榴:4729
榷:4730
榻:4731
槁:4732
槃:4733
槇:4734
槊:4735
構:4736
槌:4737
槍:4738
槎:4739
槐:4740
槓:4741
様:4742
槙:4743
槛:4744
槟:4745
槤:4746
槨:4747
槪:4748
槭:4749
槲:4750
槳:4751
槺:4752
槻:4753
槽:4754
槿:4755
樁:4756
樂:4757
樅:4758
樊:4759
樋:4760
樑:4761
樓:4762
樗:4763
標:4764
樞:4765
樟:4766
模:4767
樣:4768
樨:4769
権:4770
横:4771
樫:4772
樱:4773
樵:4774
樸:4775
樹:4776
樺:4777
樽:4778
樾:4779
橄:4780
橇:4781
橈:4782
橋:4783
橐:4784
橘:4785
橙:4786
機:4787
橡:4788
橢:4789
橫:4790
橱:4791
橹:4792
橿:4793
檀:4794
檄:4795
檉:4796
檎:4797
檐:4798
檔:4799
檗:4800
檜:4801
檢:4802
檣:4803
檬:4804
檯:4805
檳:4806
檸:4807
檻:4808
櫂:4809
櫃:4810
櫓:4811
櫚:4812
櫛:4813
櫟:4814
櫥:4815
櫨:4816
櫸:4817
櫻:4818
欄:4819
欅:4820
欉:4821
權:4822
欒:4823
欖:4824
欞:4825
欠:4826
次:4827
欢:4828
欣:4829
欤:4830
欧:4831
欲:4832
欺:4833
欽:4834
款:4835
歆:4836
歇:4837
歉:4838
歌:4839
歎:4840
歐:4841
歓:4842
歙:4843
歟:4844
歡:4845
止:4846
正:4847
此:4848
步:4849
武:4850
歧:4851
歩:4852
歪:4853
歯:4854
歲:4855
歳:4856
歴:4857
歷:4858
歸:4859
歹:4860
死:4861
歼:4862
歿:4863
殁:4864
殃:4865
殆:4866
殇:4867
殉:4868
殊:4869
残:4870
殒:4871
殓:4872
殖:4873
殘:4874
殞:4875
殡:4876
殤:4877
殭:4878
殮:4879
殯:4880
殲:4881
殴:4882
段:4883
殷:4884
殺:4885
殻:4886
殼:4887
殿:4888
毀:4889
毁:4890
毂:4891
毅:4892
毆:4893
毋:4894
毌:4895
母:4896
毎:4897
每:4898
毒:4899
毓:4900
比:4901
毕:4902
毖:4903
毗:4904
毘:4905
毙:4906
毛:4907
毡:4908
毫:4909
毬:4910
毯:4911
毽:4912
氂:4913
氈:4914
氏:4915
氐:4916
民:4917
氓:4918
气:4919
氖:4920
気:4921
氘:4922
氙:4923
氚:4924
氛:4925
氟:4926
氡:4927
氢:4928
氣:4929
氦:4930
氧:4931
氨:4932
氩:4933
氪:4934
氫:4935
氬:4936
氮:4937
氯:4938
氰:4939
水:4940
氵:4941
氷:4942
永:4943
氹:4944
氾:4945
汀:4946
汁:4947
求:4948
汇:4949
汉:4950
汊:4951
汎:4952
汐:4953
汕:4954
汗:4955
汙:4956
汚:4957
汛:4958
汜:4959
汝:4960
汞:4961
江:4962
池:4963
污:4964
汤:4965
汧:4966
汨:4967
汪:4968
汭:4969
汰:4970
汲:4971
汴:4972
汶:4973
汹:4974
決:4975
汽:4976
汾:4977
沁:4978
沂:4979
沃:4980
沄:4981
沅:4982
沆:4983
沈:4984
沉:4985
沌:4986
沐:4987
沒:4988
沓:4989
沔:4990
沖:4991
沙:4992
沛:4993
沟:4994
没:4995
沢:4996
沣:4997
沥:4998
沦:4999
沧:5000
沪:5001
沫:5002
沭:5003
沮:5004
沱:5005
河:5006
沸:5007
油:5008
治:5009
沼:5010
沽:5011
沾:5012
沿:5013
況:5014
泄:5015
泉:5016
泊:5017
泌:5018
泓:5019
法:5020
泗:5021
泚:5022
泛:5023
泞:5024
泠:5025
泡:5026
波:5027
泣:5028
泥:5029
注:5030
泪:5031
泫:5032
泮:5033
泯:5034
泰:5035
泱:5036
泳:5037
泵:5038
泷:5039
泸:5040
泻:5041
泼:5042
泽:5043
泾:5044
洁:5045
洄:5046
洋:5047
洎:5048
洒:5049
洗:5050
洙:5051
洛:5052
洞:5053
津:5054
洧:5055
洩:5056
洪:5057
洮:5058
洱:5059
洲:5060
洵:5061
洶:5062
洸:5063
洹:5064
洺:5065
活:5066
洼:5067
洽:5068
派:5069
流:5070
浄:5071
浅:5072
浆:5073
浇:5074
浊:5075
测:5076
济:5077
浏:5078
浑:5079
浒:5080
浓:5081
浔:5082
浙:5083
浚:5084
浜:5085
浞:5086
浠:5087
浣:5088
浤:5089
浦:5090
浩:5091
浪:5092
浬:5093
浮:5094
浯:5095
浴:5096
海:5097
浸:5098
涂:5099
涅:5100
涇:5101
消:5102
涉:5103
涌:5104
涎:5105
涓:5106
涔:5107
涕:5108
涙:5109
涛:5110
涜:5111
涝:5112
涞:5113
涟:5114
涡:5115
涣:5116
涤:5117
润:5118
涧:5119
涨:5120
涩:5121
涪:5122
涮:5123
涯:5124
液:5125
涵:5126
涸:5127
涼:5128
涿:5129
淀:5130
淄:5131
淅:5132
淆:5133
淇:5134
淋:5135
淌:5136
淑:5137
淒:5138
淖:5139
淘:5140
淙:5141
淚:5142
淝:5143
淞:5144
淡:5145
淤:5146
淦:5147
淨:5148
淩:5149
淪:5150
淫:5151
淬:5152
淮:5153
淯:5154
深:5155
淳:5156
淵:5157
淶:5158
混:5159
淸:5160
淹:5161
淺:5162
添:5163
淼:5164
清:5165
渇:5166
済:5167
渉:5168
渊:5169
渋:5170
渍:5171
渎:5172
渐:5173
渓:5174
渔:5175
渕:5176
渗:5177
渙:5178
渚:5179
減:5180
渝:5181
渟:5182
渠:5183
渡:5184
渣:5185
渤:5186
渥:5187
渦:5188
温:5189
渫:5190
測:5191
渭:5192
港:5193
渲:5194
渴:5195
游:5196
渺:5197
渾:5198
湃:5199
湄:5200
湊:5201
湍:5202
湖:5203
湘:5204
湛:5205
湜:5206
湟:5207
湣:5208
湧:5209
湫:5210
湮:5211
湯:5212
湳:5213
湾:5214
湿:5215
満:5216
溃:5217
溅:5218
溆:5219
溉:5220
溏:5221
源:5222
準:5223
溜:5224
溝:5225
溟:5226
溢:5227
溥:5228
溧:5229
溪:5230
溫:5231
溯:5232
溱:5233
溲:5234
溴:5235
溶:5236
溺:5237
溼:5238
滁:5239
滂:5240
滄:5241
滅:5242
滇:5243
滉:5244
滋:5245
滌:5246
滎:5247
滏:5248
滑:5249
滓:5250
滔:5251
滕:5252
滘:5253
滙:5254
滚:5255
滝:5256
滞:5257
满:5258
滢:5259
滤:5260
滥:5261
滦:5262
滨:5263
滩:5264
滬:5265
滯:5266
滲:5267
滴:5268
滷:5269
滸:5270
滹:5271
滾:5272
滿:5273
漁:5274
漂:5275
漆:5276
漉:5277
漏:5278
漑:5279
漓:5280
演:5281
漕:5282
漠:5283
漢:5284
漣:5285
漩:5286
漪:5287
漫:5288
漬:5289
漯:5290
漱:5291
漲:5292
漳:5293
漵:5294
漸:5295
漾:5296
漿:5297
潁:5298
潇:5299
潍:5300
潑:5301
潔:5302
潘:5303
潛:5304
潜:5305
潞:5306
潟:5307
潢:5308
潤:5309
潦:5310
潭:5311
潮:5312
潯:5313
潰:5314
潴:5315
潺:5316
潼:5317
潾:5318
澀:5319
澁:5320
澂:5321
澄:5322
澆:5323
澇:5324
澈:5325
澍:5326
澎:5327
澗:5328
澜:5329
澠:5330
澡:5331
澤:5332
澧:5333
澪:5334
澮:5335
澱:5336
澳:5337
澶:5338
澹:5339
激:5340
濁:5341
濂:5342
濃:5343
濉:5344
濊:5345
濑:5346
濒:5347
濕:5348
濘:5349
濛:5350
濞:5351
濟:5352
濠:5353
濡:5354
濤:5355
濫:5356
濬:5357
濮:5358
濯:5359
濰:5360
濱:5361
濵:5362
濺:5363
濾:5364
瀅:5365
瀆:5366
瀉:5367
瀋:5368
瀏:5369
瀑:5370
瀕:5371
瀘:5372
瀚:5373
瀛:5374
瀝:5375
瀞:5376
瀟:5377
瀧:5378
瀨:5379
瀬:5380
瀰:5381
瀾:5382
灃:5383
灌:5384
灏:5385
灑:5386
灕:5387
灘:5388
灝:5389
灞:5390
灣:5391
灤:5392
火:5393
灭:5394
灯:5395
灰:5396
灵:5397
灶:5398
灸:5399
灼:5400
災:5401
灾:5402
灿:5403
炀:5404
炁:5405
炅:5406
炆:5407
炉:5408
炊:5409
炎:5410
炒:5411
炔:5412
炕:5413
炖:5414
炘:5415
炙:5416
炜:5417
炤:5418
炫:5419
炬:5420
炭:5421
炮:5422
炯:5423
炱:5424
炳:5425
炸:5426
点:5427
為:5428
炼:5429
炽:5430
烁:5431
烂:5432
烃:5433
烈:5434
烏:5435
烘:5436
烙:5437
烛:5438
烜:5439
烝:5440
烟:5441
烤:5442
烦:5443
烧:5444
烨:5445
烩:5446
烫:5447
烬:5448
热:5449
烯:5450
烴:5451
烷:5452
烹:5453
烺:5454
烽:5455
焉:5456
焊:5457
焓:5458
焔:5459
焕:5460
焗:5461
焘:5462
焙:5463
焚:5464
焜:5465
無:5466
焦:5467
焯:5468
焰:5469
焱:5470
然:5471
焼:5472
煇:5473
煉:5474
煊:5475
煌:5476
煎:5477
煒:5478
煕:5479
煖:5480
煙:5481
煚:5482
煜:5483
煞:5484
煤:5485
煥:5486
煦:5487
照:5488
煨:5489
煩:5490
煬:5491
煮:5492
煲:5493
煽:5494
熄:5495
熈:5496
熊:5497
熏:5498
熒:5499
熔:5500
熙:5501
熟:5502
熠:5503
熨:5504
熬:5505
熱:5506
熲:5507
熵:5508
熹:5509
熾:5510
燁:5511
燃:5512
燄:5513
燈:5514
燉:5515
燊:5516
燎:5517
燐:5518
燒:5519
燔:5520
燕:5521
燗:5522
燙:5523
營:5524
燥:5525
燦:5526
燧:5527
燬:5528
燭:5529
燮:5530
燴:5531
燹:5532
燻:5533
燼:5534
燾:5535
燿:5536
爀:5537
爆:5538
爍:5539
爐:5540
爛:5541
爨:5542
爪:5543
爬:5544
爭:5545
爰:5546
爱:5547
爲:5548
爵:5549
父:5550
爷:5551
爸:5552
爹:5553
爺:5554
爻:5555
爽:5556
爾:5557
牂:5558
牆:5559
片:5560
版:5561
牌:5562
牍:5563
牒:5564
牘:5565
牙:5566
牛:5567
牝:5568
牟:5569
牠:5570
牡:5571
牢:5572
牧:5573
物:5574
牯:5575
牲:5576
牴:5577
牵:5578
特:5579
牺:5580
牻:5581
牽:5582
犀:5583
犁:5584
犂:5585
犄:5586
犊:5587
犍:5588
犒:5589
犛:5590
犠:5591
犢:5592
犧:5593
犬:5594
犯:5595
犰:5596
状:5597
犷:5598
犸:5599
犹:5600
犽:5601
狀:5602
狂:5603
狄:5604
狈:5605
狍:5606
狎:5607
狐:5608
狒:5609
狗:5610
狙:5611
狛:5612
狠:5613
狡:5614
狨:5615
狩:5616
独:5617
狭:5618
狮:5619
狱:5620
狳:5621
狷:5622
狸:5623
狹:5624
狼:5625
狽:5626
猁:5627
猊:5628
猎:5629
猕:5630
猖:5631
猗:5632
猛:5633
猜:5634
猝:5635
猞:5636
猟:5637
猥:5638
猩:5639
猪:5640
猫:5641
猬:5642
献:5643
猴:5644
猶:5645
猷:5646
猾:5647
猿:5648
獁:5649
獄:5650
獅:5651
獎:5652
獏:5653
獐:5654
獒:5655
獗:5656
獠:5657
獣:5658
獨:5659
獬:5660
獭:5661
獰:5662
獲:5663
獴:5664
獵:5665
獷:5666
獸:5667
獺:5668
獻:5669
獼:5670
獾:5671
玄:5672
玆:5673
率:5674
玉:5675
王:5676
玑:5677
玕:5678
玖:5679
玘:5680
玛:5681
玟:5682
玠:5683
玢:5684
玥:5685
玩:5686
玫:5687
玮:5688
环:5689
现:5690
玲:5691
玳:5692
玷:5693
玹:5694
玺:5695
玻:5696
珀:5697
珂:5698
珅:5699
珈:5700
珉:5701
珊:5702
珍:5703
珏:5704
珐:5705
珑:5706
珙:5707
珝:5708
珞:5709
珠:5710
珣:5711
珥:5712
珦:5713
珩:5714
珪:5715
班:5716
珮:5717
珲:5718
珺:5719
珽:5720
現:5721
球:5722
琅:5723
理:5724
琇:5725
琉:5726
琊:5727
琍:5728
琏:5729
琐:5730
琚:5731
琛:5732
琢:5733
琤:5734
琥:5735
琦:5736
琨:5737
琪:5738
琬:5739
琮:5740
琯:5741
琰:5742
琲:5743
琳:5744
琴:5745
琵:5746
琶:5747
琺:5748
琼:5749
琿:5750
瑀:5751
瑁:5752
瑄:5753
瑈:5754
瑊:5755
瑋:5756
瑕:5757
瑗:5758
瑙:5759
瑚:5760
瑛:5761
瑜:5762
瑞:5763
瑟:5764
瑠:5765
瑢:5766
瑣:5767
瑤:5768
瑩:5769
瑪:5770
瑭:5771
瑯:5772
瑰:5773
瑱:5774
瑳:5775
瑶:5776
瑷:5777
瑾:5778
璀:5779
璁:5780
璃:5781
璆:5782
璇:5783
璈:5784
璉:5785
璋:5786
璐:5787
璘:5788
璜:5789
璞:5790
璟:5791
璠:5792
璣:5793
璥:5794
璦:5795
璧:5796
璨:5797
璩:5798
璪:5799
環:5800
璲:5801
璹:5802
璽:5803
璿:5804
瓊:5805
瓌:5806
瓏:5807
瓒:5808
瓔:5809
瓘:5810
瓚:5811
瓛:5812
瓜:5813
瓠:5814
瓢:5815
瓣:5816
瓦:5817
瓩:5818
瓮:5819
瓯:5820
瓶:5821
瓷:5822
甄:5823
甌:5824
甑:5825
甕:5826
甘:5827
甚:5828
甜:5829
生:5830
甡:5831
產:5832
産:5833
甥:5834
甦:5835
用:5836
甩:5837
甫:5838
甬:5839
甯:5840
田:5841
由:5842
甲:5843
申:5844
电:5845
男:5846
甸:5847
町:5848
画:5849
甾:5850
畀:5851
畅:5852
畈:5853
畋:5854
界:5855
畏:5856
畑:5857
畔:5858
留:5859
畜:5860
畝:5861
畠:5862
畢:5863
畤:5864
略:5865
畦:5866
番:5867
畫:5868
畬:5869
畯:5870
異:5871
畲:5872
畳:5873
畴:5874
畵:5875
當:5876
畷:5877
畸:5878
畹:5879
畿:5880
疃:5881
疆:5882
疇:5883
疊:5884
疋:5885
疍:5886
疎:5887
疏:5888
疑:5889
疒:5890
疗:5891
疙:5892
疚:5893
疝:5894
疟:5895
疡:5896
疣:5897
疤:5898
疥:5899
疫:5900
疮:5901
疯:5902
疱:5903
疲:5904
疵:5905
疸:5906
疹:5907
疼:5908
疽:5909
疾:5910
痂:5911
病:5912
症:5913
痉:5914
痊:5915
痍:5916
痒:5917
痔:5918
痕:5919
痘:5920
痙:5921
痛:5922
痞:5923
痢:5924
痣:5925
痤:5926
痩:5927
痪:5928
痫:5929
痰:5930
痲:5931
痴:5932
痹:5933
痺:5934
瘀:5935
瘁:5936
瘋:5937
瘍:5938
瘓:5939
瘙:5940
瘟:5941
瘠:5942
瘡:5943
瘢:5944
瘤:5945
瘦:5946
瘧:5947
瘩:5948
瘫:5949
瘴:5950
瘾:5951
療:5952
癇:5953
癌:5954
癒:5955
癖:5956
癡:5957
癢:5958
癣:5959
癥:5960
癩:5961
癪:5962
癫:5963
癬:5964
癮:5965
癱:5966
癲:5967
癸:5968
発:5969
登:5970
發:5971
白:5972
百:5973
皂:5974
的:5975
皆:5976
皇:5977
皈:5978
皋:5979
皎:5980
皐:5981
皓:5982
皖:5983
皙:5984
皝:5985
皮:5986
皰:5987
皱:5988
皺:5989
皿:5990
盂:5991
盃:5992
盅:5993
盆:5994
盈:5995
益:5996
盎:5997
盏:5998
盐:5999
监:6000
盒:6001
盔:6002
盖:6003
盗:6004
盘:6005
盛:6006
盜:6007
盞:6008
盟:6009
盡:6010
監:6011
盤:6012
盥:6013
盧:6014
盩:6015
盪:6016
目:6017
盯:6018
盱:6019
盲:6020
直:6021
相:6022
盼:6023
盾:6024
省:6025
眈:6026
眉:6027
看:6028
県:6029
眙:6030
眞:6031
真:6032
眠:6033
眨:6034
眩:6035
眭:6036
眶:6037
眷:6038
眸:6039
眺:6040
眼:6041
眾:6042
着:6043
睁:6044
睇:6045
睐:6046
睑:6047
睛:6048
睜:6049
睞:6050
睡:6051
睢:6052
督:6053
睦:6054
睨:6055
睪:6056
睫:6057
睬:6058
睹:6059
睺:6060
睽:6061
睾:6062
睿:6063
瞄:6064
瞋:6065
瞌:6066
瞎:6067
瞑:6068
瞒:6069
瞞:6070
瞥:6071
瞧:6072
瞩:6073
瞪:6074
瞬:6075
瞭:6076
瞰:6077
瞳:6078
瞻:6079
瞼:6080
瞽:6081
瞿:6082
矇:6083
矍:6084
矗:6085
矚:6086
矛:6087
矜:6088
矢:6089
矣:6090
知:6091
矧:6092
矩:6093
矫:6094
短:6095
矮:6096
矯:6097
石:6098
矶:6099
矽:6100
矾:6101
矿:6102
砀:6103
码:6104
砂:6105
砌:6106
砍:6107
砒:6108
研:6109
砕:6110
砖:6111
砚:6112
砜:6113
砥:6114
砦:6115
砧:6116
砬:6117
砭:6118
砰:6119
砲:6120
破:6121
砵:6122
砷:6123
砸:6124
砺:6125
砾:6126
砿:6127
础:6128
硃:6129
硅:6130
硏:6131
硐:6132
硒:6133
硕:6134
硖:6135
硝:6136
硤:6137
硫:6138
硬:6139
确:6140
硯:6141
硼:6142
碁:6143
碇:6144
碉:6145
碌:6146
碍:6147
碎:6148
碑:6149
碓:6150
碕:6151
碗:6152
碘:6153
碚:6154
碛:6155
碟:6156
碣:6157
碧:6158
碩:6159
碭:6160
碰:6161
碱:6162
碲:6163
碳:6164
碴:6165
碶:6166
碸:6167
確:6168
碼:6169
碾:6170
磁:6171
磅:6172
磊:6173
磋:6174
磐:6175
磔:6176
磕:6177
磘:6178
磚:6179
磡:6180
磧:6181
磨:6182
磬:6183
磯:6184
磴:6185
磷:6186
磺:6187
磻:6188
磾:6189
礁:6190
礎:6191
礒:6192
礙:6193
礦:6194
礪:6195
礫:6196
礬:6197
礴:6198
示:6199
礼:6200
礽:6201
社:6202
祀:6203
祁:6204
祂:6205
祆:6206
祇:6207
祈:6208
祉:6209
祎:6210
祏:6211
祐:6212
祓:6213
祔:6214
祕:6215
祖:6216
祗:6217
祚:6218
祛:6219
祜:6220
祝:6221
神:6222
祟:6223
祠:6224
祢:6225
祥:6226
票:6227
祭:6228
祯:6229
祷:6230
祸:6231
祺:6232
祿:6233
禀:6234
禁:6235
禄:6236
禅:6237
禊:6238
禍:6239
禎:6240
福:6241
禑:6242
禔:6243
禕:6244
禛:6245
禦:6246
禧:6247
禩:6248
禪:6249
禮:6250
禰:6251
禱:6252
禹:6253
禺:6254
离:6255
禽:6256
禾:6257
禿:6258
秀:6259
私:6260
秃:6261
秆:6262
秉:6263
秋:6264
种:6265
科:6266
秒:6267
秘:6268
租:6269
秣:6270
秤:6271
秦:6272
秧:6273
秩:6274
秭:6275
积:6276
称:6277
秸:6278
移:6279
秽:6280
稀:6281
稃:6282
稅:6283
稈:6284
程:6285
稍:6286
税:6287
稔:6288
稗:6289
稙:6290
稚:6291
稜:6292
稟:6293
稠:6294
稣:6295
種:6296
稱:6297
稲:6298
稳:6299
稷:6300
稹:6301
稻:6302
稼:6303
稽:6304
稿:6305
穀:6306
穂:6307
穆:6308
穌:6309
積:6310
穎:6311
穏:6312
穐:6313
穗:6314
穢:6315
穣:6316
穩:6317
穫:6318
穰:6319
穴:6320
究:6321
穷:6322
穹:6323
空:6324
穿:6325
突:6326
窃:6327
窄:6328
窈:6329
窍:6330
窑:6331
窒:6332
窓:6333
窕:6334
窖:6335
窗:6336
窘:6337
窜:6338
窝:6339
窟:6340
窠:6341
窣:6342
窥:6343
窦:6344
窩:6345
窪:6346
窮:6347
窯:6348
窺:6349
窿:6350
竄:6351
竅:6352
竇:6353
竈:6354
竊:6355
立:6356
竑:6357
竖:6358
站:6359
竜:6360
竝:6361
竞:6362
竟:6363
章:6364
竣:6365
童:6366
竦:6367
竪:6368
竭:6369
端:6370
競:6371
竹:6372
竺:6373
竿:6374
笃:6375
笄:6376
笆:6377
笈:6378
笋:6379
笏:6380
笑:6381
笔:6382
笕:6383
笙:6384
笛:6385
笞:6386
笠:6387
笥:6388
符:6389
笨:6390
笪:6391
第:6392
笮:6393
笳:6394
笹:6395
笺:6396
笼:6397
筅:6398
筆:6399
筈:6400
等:6401
筊:6402
筋:6403
筌:6404
筍:6405
筏:6406
筐:6407
筑:6408
筒:6409
答:6410
策:6411
筛:6412
筝:6413
筠:6414
筥:6415
筧:6416
筮:6417
筰:6418
筱:6419
筲:6420
筵:6421
筷:6422
筹:6423
筺:6424
签:6425
简:6426
箇:6427
箋:6428
箍:6429
箏:6430
箐:6431
箒:6432
箓:6433
箔:6434
箕:6435
算:6436
箚:6437
箝:6438
管:6439
箪:6440
箫:6441
箬:6442
箭:6443
箱:6444
箴:6445
箸:6446
節:6447
篁:6448
範:6449
篆:6450
篇:6451
築:6452
篋:6453
篙:6454
篝:6455
篠:6456
篡:6457
篤:6458
篦:6459
篩:6460
篪:6461
篭:6462
篮:6463
篱:6464
篷:6465
篾:6466
簀:6467
簃:6468
簇:6469
簋:6470
簑:6471
簒:6472
簕:6473
簗:6474
簡:6475
簧:6476
簪:6477
簫:6478
簷:6479
簸:6480
簽:6481
簾:6482
簿:6483
籀:6484
籁:6485
籃:6486
籌:6487
籍:6488
籐:6489
籓:6490
籔:6491
籙:6492
籟:6493
籠:6494
籤:6495
籬:6496
籲:6497
米:6498
类:6499
籽:6500
籾:6501
粁:6502
粂:6503
粄:6504
粉:6505
粋:6506
粍:6507
粑:6508
粒:6509
粕:6510
粗:6511
粘:6512
粛:6513
粟:6514
粤:6515
粥:6516
粧:6517
粪:6518
粮:6519
粱:6520
粲:6521
粳:6522
粵:6523
粹:6524
粽:6525
精:6526
粿:6527
糀:6528
糅:6529
糊:6530
糍:6531
糎:6532
糕:6533
糖:6534
糗:6535
糙:6536
糜:6537
糞:6538
糟:6539
糠:6540
糧:6541
糬:6542
糯:6543
糰:6544
糸:6545
糹:6546
糺:6547
系:6548
糾:6549
紀:6550
紂:6551
約:6552
紅:6553
紆:6554
紇:6555
紉:6556
紊:6557
紋:6558
納:6559
紐:6560
紓:6561
純:6562
紗:6563
紘:6564
紙:6565
級:6566
紛:6567
紜:6568
素:6569
紡:6570
索:6571
紧:6572
紫:6573
紬:6574
紮:6575
累:6576
細:6577
紳:6578
紹:6579
紺:6580
終:6581
絃:6582
組:6583
絅:6584
絆:6585
経:6586
結:6587
絕:6588
絜:6589
絞:6590
絡:6591
絢:6592
絣:6593
給:6594
絨:6595
絮:6596
統:6597
絲:6598
絳:6599
絵:6600
絶:6601
絹:6602
綁:6603
綃:6604
綉:6605
綏:6606
綑:6607
經:6608
継:6609
続:6610
綜:6611
綝:6612
綠:6613
綢:6614
綦:6615
綫:6616
綬:6617
維:6618
綰:6619
綱:6620
網:6621
綴:6622
綵:6623
綸:6624
綺:6625
綻:6626
綽:6627
綾:6628
綿:6629
緊:6630
緋:6631
総:6632
緑:6633
緒:6634
緖:6635
緘:6636
線:6637
緝:6638
緞:6639
締:6640
緡:6641
緣:6642
編:6643
緩:6644
緬:6645
緯:6646
緲:6647
練:6648
緹:6649
緻:6650
縁:6651
縄:6652
縈:6653
縉:6654
縊:6655
縛:6656
縝:6657
縞:6658
縣:6659
縦:6660
縫:6661
縮:6662
縯:6663
縱:6664
縷:6665
縹:6666
縻:6667
總:6668
績:6669
繁:6670
繃:6671
繆:6672
繇:6673
繊:6674
繋:6675
繍:6676
繒:6677
織:6678
繕:6679
繙:6680
繚:6681
繞:6682
繡:6683
繩:6684
繪:6685
繫:6686
繭:6687
繰:6688
繳:6689
繹:6690
繼:6691
繽:6692
纂:6693
纈:6694
續:6695
纍:6696
纏:6697
纓:6698
纖:6699
纘:6700
纛:6701
纜:6702
纠:6703
红:6704
纣:6705
纤:6706
纥:6707
约:6708
级:6709
纪:6710
纫:6711
纬:6712
纭:6713
纮:6714
纯:6715
纱:6716
纲:6717
纳:6718
纵:6719
纶:6720
纷:6721
纸:6722
纹:6723
纺:6724
纽:6725
纾:6726
线:6727
绀:6728
绂:6729
练:6730
组:6731
绅:6732
细:6733
织:6734
终:6735
绊:6736
绍:6737
绎:6738
经:6739
绑:6740
绒:6741
结:6742
绕:6743
绘:6744
给:6745
绚:6746
绛:6747
络:6748
绝:6749
绞:6750
统:6751
绡:6752
绢:6753
绣:6754
绥:6755
继:6756
绩:6757
绪:6758
绫:6759
续:6760
绮:6761
绯:6762
绰:6763
绳:6764
维:6765
绵:6766
绶:6767
绷:6768
绸:6769
综:6770
绽:6771
绾:6772
绿:6773
缀:6774
缄:6775
缅:6776
缆:6777
缇:6778
缉:6779
缎:6780
缓:6781
缔:6782
缕:6783
编:6784
缘:6785
缙:6786
缚:6787
缜:6788
缝:6789
缟:6790
缠:6791
缢:6792
缤:6793
缨:6794
缩:6795
缪:6796
缬:6797
缭:6798
缮:6799
缯:6800
缴:6801
缵:6802
缶:6803
缸:6804
缺:6805
缽:6806
罂:6807
罄:6808
罅:6809
罈:6810
罌:6811
罐:6812
网:6813
罔:6814
罕:6815
罗:6816
罘:6817
罚:6818
罟:6819
罠:6820
罡:6821
罢:6822
罩:6823
罪:6824
置:6825
罰:6826
署:6827
罵:6828
罷:6829
罹:6830
罽:6831
羁:6832
羅:6833
羆:6834
羈:6835
羊:6836
羋:6837
羌:6838
美:6839
羔:6840
羚:6841
羞:6842
羟:6843
羡:6844
羣:6845
群:6846
羥:6847
羧:6848
羨:6849
義:6850
羯:6851
羰:6852
羲:6853
羸:6854
羹:6855
羽:6856
羿:6857
翀:6858
翁:6859
翅:6860
翊:6861
翌:6862
翎:6863
習:6864
翔:6865
翕:6866
翘:6867
翟:6868
翠:6869
翡:6870
翥:6871
翦:6872
翩:6873
翫:6874
翮:6875
翰:6876
翱:6877
翳:6878
翹:6879
翻:6880
翼:6881
耀:6882
老:6883
考:6884
者:6885
耆:6886
而:6887
耍:6888
耐:6889
耒:6890
耕:6891
耗:6892
耘:6893
耙:6894
耜:6895
耦:6896
耨:6897
耳:6898
耶:6899
耸:6900
耻:6901
耽:6902
耿:6903
聂:6904
聃:6905
聆:6906
聊:6907
聋:6908
职:6909
联:6910
聖:6911
聘:6912
聚:6913
聞:6914
聡:6915
聪:6916
聯:6917
聰:6918
聲:6919
聳:6920
聴:6921
聶:6922
職:6923
聽:6924
聾:6925
聿:6926
肃:6927
肄:6928
肅:6929
肆:6930
肇:6931
肉:6932
肋:6933
肌:6934
肓:6935
肖:6936
肘:6937
肚:6938
肛:6939
肜:6940
肝:6941
肟:6942
肠:6943
股:6944
肢:6945
肤:6946
肥:6947
肩:6948
肪:6949
肮:6950
肯:6951
肱:6952
育:6953
肴:6954
肺:6955
肼:6956
肽:6957
肾:6958
肿:6959
胀:6960
胁:6961
胃:6962
胄:6963
胆:6964
背:6965
胍:6966
胎:6967
胖:6968
胚:6969
胛:6970
胜:6971
胝:6972
胞:6973
胡:6974
胤:6975
胥:6976
胧:6977
胪:6978
胫:6979
胭:6980
胯:6981
胰:6982
胱:6983
胳:6984
胴:6985
胶:6986
胸:6987
胺:6988
胼:6989
能:6990
脂:6991
脅:6992
脆:6993
脇:6994
脈:6995
脉:6996
脊:6997
脍:6998
脏:6999
脐:7000
脑:7001
脓:7002
脖:7003
脚:7004
脛:7005
脣:7006
脩:7007
脫:7008
脯:7009
脱:7010
脲:7011
脳:7012
脷:7013
脸:7014
脹:7015
脾:7016
腆:7017
腈:7018
腊:7019
腋:7020
腌:7021
腎:7022
腐:7023
腑:7024
腓:7025
腔:7026
腕:7027
腥:7028
腦:7029
腩:7030
腫:7031
腭:7032
腮:7033
腰:7034
腱:7035
腳:7036
腴:7037
腸:7038
腹:7039
腺:7040
腻:7041
腾:7042
腿:7043
膀:7044
膂:7045
膈:7046
膊:7047
膏:7048
膑:7049
膚:7050
膛:7051
膜:7052
膝:7053
膠:7054
膣:7055
膦:7056
膨:7057
膩:7058
膳:7059
膵:7060
膺:7061
膽:7062
膾:7063
膿:7064
臀:7065
臂:7066
臆:7067
臈:7068
臉:7069
臍:7070
臏:7071
臓:7072
臘:7073
臚:7074
臟:7075
臣:7076
臥:7077
臧:7078
臨:7079
自:7080
臬:7081
臭:7082
至:7083
致:7084
臺:7085
臻:7086
臼:7087
臾:7088
舁:7089
舂:7090
舅:7091
舆:7092
與:7093
興:7094
舉:7095
舊:7096
舌:7097
舍:7098
舎:7099
舐:7100
舒:7101
舔:7102
舖:7103
舗:7104
舘:7105
舛:7106
舜:7107
舞:7108
舟:7109
舢:7110
舩:7111
航:7112
舫:7113
般:7114
舯:7115
舰:7116
舱:7117
舳:7118
舵:7119
舶:7120
舷:7121
舸:7122
船:7123
舺:7124
舾:7125
艀:7126
艇:7127
艉:7128
艋:7129
艏:7130
艘:7131
艙:7132
艛:7133
艤:7134
艦:7135
艮:7136
良:7137
艰:7138
艱:7139
色:7140
艳:7141
艶:7142
艷:7143
艸:7144
艹:7145
艺:7146
艾:7147
节:7148
芃:7149
芈:7150
芊:7151
芋:7152
芍:7153
芎:7154
芒:7155
芗:7156
芙:7157
芜:7158
芝:7159
芡:7160
芥:7161
芦:7162
芨:7163
芩:7164
芪:7165
芫:7166
芬:7167
芭:7168
芮:7169
芯:7170
花:7171
芳:7172
芷:7173
芸:7174
芹:7175
芻:7176
芽:7177
芾:7178
苄:7179
苅:7180
苇:7181
苋:7182
苌:7183
苍:7184
苎:7185
苏:7186
苑:7187
苓:7188
苔:7189
苕:7190
苗:7191
苛:7192
苜:7193
苞:7194
苟:7195
苡:7196
苣:7197
若:7198
苦:7199
苧:7200
苫:7201
苯:7202
英:7203
苳:7204
苴:7205
苷:7206
苹:7207
苺:7208
苻:7209
苾:7210
茁:7211
茂:7212
范:7213
茄:7214
茅:7215
茉:7216
茌:7217
茎:7218
茔:7219
茗:7220
茛:7221
茜:7222
茧:7223
茨:7224
茫:7225
茯:7226
茱:7227
茲:7228
茴:7229
茵:7230
茶:7231
茸:7232
茹:7233
荀:7234
荃:7235
荆:7236
草:7237
荊:7238
荏:7239
荐:7240
荒:7241
荔:7242
荖:7243
荘:7244
荚:7245
荞:7246
荟:7247
荠:7248
荡:7249
荣:7250
荤:7251
荥:7252
荧:7253
荨:7254
荩:7255
荪:7256
荫:7257
药:7258
荳:7259
荷:7260
荸:7261
荻:7262
荼:7263
荽:7264
莅:7265
莆:7266
莉:7267
莊:7268
莎:7269
莒:7270
莓:7271
莖:7272
莘:7273
莞:7274
莠:7275
莢:7276
莧:7277
莨:7278
莪:7279
莫:7280
莱:7281
莲:7282
莳:7283
莴:7284
获:7285
莹:7286
莺:7287
莽:7288
莿:7289
菀:7290
菁:7291
菅:7292
菇:7293
菈:7294
菊:7295
菌:7296
菏:7297
菓:7298
菖:7299
菘:7300
菜:7301
菝:7302
菟:7303
菠:7304
菡:7305
菩:7306
菫:7307
華:7308
菰:7309
菱:7310
菲:7311
菴:7312
菸:7313
菽:7314
萁:7315
萃:7316
萄:7317
萇:7318
萊:7319
萌:7320
萍:7321
萎:7322
萘:7323
萜:7324
萝:7325
萠:7326
萣:7327
萤:7328
营:7329
萦:7330
萧:7331
萨:7332
萩:7333
萬:7334
萱:7335
萵:7336
萸:7337
萼:7338
落:7339
葆:7340
葉:7341
葎:7342
著:7343
葛:7344
葜:7345
葡:7346
董:7347
葦:7348
葩:7349
葫:7350
葬:7351
葭:7352
葯:7353
葱:7354
葳:7355
葵:7356
葶:7357
葷:7358
葺:7359
蒂:7360
蒋:7361
蒐:7362
蒔:7363
蒙:7364
蒜:7365
蒞:7366
蒟:7367
蒡:7368
蒨:7369
蒯:7370
蒲:7371
蒴:7372
蒸:7373
蒺:7374
蒻:7375
蒼:7376
蒽:7377
蒾:7378
蒿:7379
蓀:7380
蓁:7381
蓄:7382
蓆:7383
蓉:7384
蓋:7385
蓍:7386
蓑:7387
蓓:7388
蓖:7389
蓝:7390
蓟:7391
蓣:7392
蓬:7393
蓮:7394
蓼:7395
蓿:7396
蔀:7397
蔑:7398
蔓:7399
蔔:7400
蔗:7401
蔘:7402
蔚:7403
蔡:7404
蔣:7405
蔥:7406
蔦:7407
蔬:7408
蔭:7409
蔴:7410
蔵:7411
蔷:7412
蔺:7413
蔻:7414
蔼:7415
蔽:7416
蕁:7417
蕃:7418
蕈:7419
蕉:7420
蕊:7421
蕎:7422
蕗:7423
蕙:7424
蕤:7425
蕨:7426
蕩:7427
蕪:7428
蕭:7429
蕲:7430
蕴:7431
蕷:7432
蕾:7433
薀:7434
薄:7435
薇:7436
薈:7437
薊:7438
薌:7439
薏:7440
薑:7441
薔:7442
薗:7443
薙:7444
薛:7445
薜:7446
薦:7447
薨:7448
薩:7449
薪:7450
薫:7451
薬:7452
薮:7453
薯:7454
薰:7455
薷:7456
薹:7457
薺:7458
藁:7459
藉:7460
藍:7461
藎:7462
藏:7463
藐:7464
藓:7465
藔:7466
藕:7467
藜:7468
藝:7469
藤:7470
藥:7471
藨:7472
藩:7473
藪:7474
藷:7475
藹:7476
藺:7477
藻:7478
藿:7479
蘂:7480
蘄:7481
蘅:7482
蘆:7483
蘇:7484
蘊:7485
蘋:7486
蘑:7487
蘚:7488
蘭:7489
蘸:7490
蘿:7491
虎:7492
虏:7493
虐:7494
虑:7495
虓:7496
虔:7497
處:7498
虚:7499
虛:7500
虜:7501
虞:7502
號:7503
虢:7504
虧:7505
虫:7506
虬:7507
虯:7508
虱:7509
虹:7510
虻:7511
虽:7512
虾:7513
蚀:7514
蚁:7515
蚂:7516
蚊:7517
蚋:7518
蚌:7519
蚓:7520
蚕:7521
蚜:7522
蚝:7523
蚣:7524
蚤:7525
蚩:7526
蚪:7527
蚬:7528
蚯:7529
蚱:7530
蚵:7531
蚶:7532
蚺:7533
蛀:7534
蛄:7535
蛆:7536
蛇:7537
蛉:7538
蛊:7539
蛋:7540
蛍:7541
蛎:7542
蛏:7543
蛔:7544
蛙:7545
蛛:7546
蛞:7547
蛟:7548
蛤:7549
蛭:7550
蛮:7551
蛯:7552
蛰:7553
蛱:7554
蛳:7555
蛸:7556
蛹:7557
蛺:7558
蛻:7559
蛾:7560
蜀:7561
蜂:7562
蜃:7563
蜆:7564
蜈:7565
蜉:7566
蜊:7567
蜍:7568
蜑:7569
蜒:7570
蜓:7571
蜕:7572
蜗:7573
蜘:7574
蜚:7575
蜜:7576
蜡:7577
蜢:7578
蜥:7579
蜱:7580
蜴:7581
蜷:7582
蜻:7583
蜿:7584
蝇:7585
蝉:7586
蝋:7587
蝌:7588
蝎:7589
蝓:7590
蝕:7591
蝗:7592
蝙:7593
蝟:7594
蝠:7595
蝣:7596
蝦:7597
蝨:7598
蝮:7599
蝰:7600
蝴:7601
蝶:7602
蝸:7603
蝽:7604
蝾:7605
蝿:7606
螂:7607
螃:7608
螄:7609
螈:7610
融:7611
螞:7612
螟:7613
螢:7614
螨:7615
螫:7616
螭:7617
螯:7618
螳:7619
螺:7620
螽:7621
蟀:7622
蟄:7623
蟆:7624
蟇:7625
蟋:7626
蟎:7627
蟑:7628
蟒:7629
蟜:7630
蟠:7631
蟬:7632
蟲:7633
蟷:7634
蟹:7635
蟻:7636
蟾:7637
蠅:7638
蠊:7639
蠍:7640
蠑:7641
蠔:7642
蠕:7643
蠟:7644
蠡:7645
蠢:7646
蠣:7647
蠱:7648
蠲:7649
蠵:7650
蠶:7651
蠹:7652
蠻:7653
血:7654
衅:7655
衆:7656
衊:7657
行:7658
衍:7659
衒:7660
術:7661
衔:7662
衕:7663
街:7664
衙:7665
衚:7666
衛:7667
衝:7668
衞:7669
衡:7670
衢:7671
衣:7672
补:7673
表:7674
衫:7675
衬:7676
衮:7677
衰:7678
衷:7679
衹:7680
衽:7681
衾:7682
衿:7683
袁:7684
袂:7685
袄:7686
袈:7687
袋:7688
袍:7689
袒:7690
袖:7691
袛:7692
袜:7693
袞:7694
袢:7695
袤:7696
被:7697
袭:7698
袱:7699
袴:7700
裁:7701
裂:7702
装:7703
裏:7704
裒:7705
裔:7706
裕:7707
裘:7708
裙:7709
補:7710
裝:7711
裟:7712
裡:7713
裤:7714
裨:7715
裱:7716
裳:7717
裴:7718
裵:7719
裸:7720
裹:7721
製:7722
裾:7723
褂:7724
複:7725
褌:7726
褐:7727
褒:7728
褓:7729
褔:7730
褚:7731
褥:7732
褪:7733
褫:7734
褲:7735
褶:7736
褻:7737
襁:7738
襄:7739
襖:7740
襞:7741
襟:7742
襦:7743
襪:7744
襯:7745
襲:7746
襷:7747
西:7748
要:7749
覃:7750
覆:7751
覇:7752
見:7753
規:7754
覓:7755
視:7756
覗:7757
覚:7758
覦:7759
覧:7760
親:7761
覬:7762
覲:7763
観:7764
覺:7765
覽:7766
觀:7767
见:7768
观:7769
规:7770
觅:7771
视:7772
览:7773
觉:7774
觊:7775
觎:7776
觐:7777
角:7778
觚:7779
觞:7780
解:7781
触:7782
觴:7783
觸:7784
言:7785
訁:7786
訂:7787
訃:7788
訇:7789
計:7790
訊:7791
訌:7792
討:7793
訓:7794
訕:7795
訖:7796
託:7797
記:7798
訛:7799
訝:7800
訟:7801
訢:7802
訣:7803
訥:7804
訪:7805
設:7806
許:7807
訳:7808
訴:7809
訶:7810
診:7811
註:7812
証:7813
訾:7814
詁:7815
詆:7816
詈:7817
詐:7818
詒:7819
詔:7820
評:7821
詛:7822
詞:7823
詠:7824
詡:7825
詢:7826
詣:7827
試:7828
詧:7829
詩:7830
詫:7831
詬:7832
詭:7833
詮:7834
詰:7835
話:7836
該:7837
詳:7838
詵:7839
詹:7840
詼:7841
誅:7842
誇:7843
誉:7844
誊:7845
誌:7846
認:7847
誑:7848
誓:7849
誕:7850
誘:7851
語:7852
誠:7853
誡:7854
誣:7855
誤:7856
誥:7857
誦:7858
誨:7859
說:7860
説:7861
読:7862
誰:7863
課:7864
誹:7865
誼:7866
誾:7867
調:7868
諂:7869
諄:7870
談:7871
請:7872
諌:7873
諍:7874
諏:7875
諒:7876
論:7877
諛:7878
諜:7879
諡:7880
諤:7881
諦:7882
諧:7883
諫:7884
諭:7885
諮:7886
諱:7887
諲:7888
諳:7889
諴:7890
諶:7891
諷:7892
諸:7893
諺:7894
諾:7895
謀:7896
謁:7897
謂:7898
謄:7899
謇:7900
謊:7901
謎:7902
謐:7903
謔:7904
謖:7905
謗:7906
謙:7907
謚:7908
講:7909
謝:7910
謠:7911
謡:7912
謨:7913
謫:7914
謬:7915
謳:7916
謹:7917
謾:7918
譁:7919
證:7920
譏:7921
識:7922
譙:7923
譚:7924
譜:7925
警:7926
譬:7927
譯:7928
議:7929
譲:7930
譴:7931
護:7932
譽:7933
讀:7934
讃:7935
變:7936
讎:7937
讐:7938
讒:7939
讓:7940
讖:7941
讚:7942
讞:7943
计:7944
订:7945
讣:7946
认:7947
讥:7948
讦:7949
讧:7950
讨:7951
让:7952
讪:7953
讫:7954
训:7955
议:7956
讯:7957
记:7958
讲:7959
讳:7960
讴:7961
讶:7962
讷:7963
许:7964
讹:7965
论:7966
讼:7967
讽:7968
设:7969
访:7970
诀:7971
证:7972
诂:7973
诃:7974
评:7975
诅:7976
识:7977
诈:7978
诉:7979
诊:7980
诋:7981
词:7982
诏:7983
译:7984
诒:7985
试:7986
诗:7987
诘:7988
诙:7989
诚:7990
诛:7991
诜:7992
话:7993
诞:7994
诟:7995
诠:7996
诡:7997
询:7998
诣:7999
诤:8000
该:8001
详:8002
诧:8003
诩:8004
诫:8005
诬:8006
语:8007
误:8008
诰:8009
诱:8010
诲:8011
说:8012
诵:8013
请:8014
诸:8015
诹:8016
诺:8017
读:8018
诽:8019
课:8020
谀:8021
谁:8022
调:8023
谄:8024
谅:8025
谈:8026
谊:8027
谋:8028
谌:8029
谍:8030
谎:8031
谏:8032
谐:8033
谑:8034
谒:8035
谓:8036
谔:8037
谕:8038
谗:8039
谘:8040
谙:8041
谚:8042
谛:8043
谜:8044
谟:8045
谢:8046
谣:8047
谤:8048
谥:8049
谦:8050
谧:8051
谨:8052
谩:8053
谪:8054
谬:8055
谭:8056
谯:8057
谱:8058
谳:8059
谴:8060
谶:8061
谷:8062
谿:8063
豁:8064
豆:8065
豈:8066
豉:8067
豊:8068
豌:8069
豎:8070
豐:8071
豔:8072
豕:8073
豚:8074
象:8075
豢:8076
豨:8077
豪:8078
豫:8079
豬:8080
豳:8081
豸:8082
豹:8083
豺:8084
貂:8085
貉:8086
貊:8087
貌:8088
貓:8089
貘:8090
貝:8091
貞:8092
負:8093
財:8094
貢:8095
貧:8096
貨:8097
販:8098
貪:8099
貫:8100
責:8101
貯:8102
貰:8103
貳:8104
貴:8105
貶:8106
買:8107
貸:8108
費:8109
貼:8110
貽:8111
貿:8112
賀:8113
賁:8114
賂:8115
賃:8116
賄:8117
資:8118
賈:8119
賊:8120
賎:8121
賑:8122
賓:8123
賚:8124
賛:8125
賜:8126
賞:8127
賠:8128
賡:8129
賢:8130
賣:8131
賤:8132
賦:8133
質:8134
賬:8135
賭:8136
賴:8137
賺:8138
購:8139
賽:8140
賾:8141
贄:8142
贅:8143
贇:8144
贈:8145
贊:8146
贋:8147
贍:8148
贏:8149
贓:8150
贔:8151
贖:8152
贛:8153
贝:8154
贞:8155
负:8156
贡:8157
财:8158
责:8159
贤:8160
败:8161
账:8162
货:8163
质:8164
贩:8165
贪:8166
贫:8167
贬:8168
购:8169
贮:8170
贯:8171
贰:8172
贱:8173
贲:8174
贴:8175
贵:8176
贷:8177
贸:8178
费:8179
贺:8180
贻:8181
贼:8182
贽:8183
贾:8184
贿:8185
赀:8186
赁:8187
赂:8188
赃:8189
资:8190
赈:8191
赉:8192
赋:8193
赌:8194
赍:8195
赎:8196
赏:8197
赐:8198
赓:8199
赔:8200
赖:8201
赘:8202
赚:8203
赛:8204
赝:8205
赞:8206
赟:8207
赠:8208
赡:8209
赢:8210
赣:8211
赤:8212
赦:8213
赧:8214
赫:8215
赭:8216
走:8217
赳:8218
赴:8219
赵:8220
赶:8221
起:8222
趁:8223
超:8224
越:8225
趋:8226
趕:8227
趙:8228
趟:8229
趣:8230
趨:8231
足:8232
趴:8233
趸:8234
趺:8235
趾:8236
跃:8237
跆:8238
跋:8239
跌:8240
跏:8241
跑:8242
跖:8243
跗:8244
跛:8245
距:8246
跟:8247
跡:8248
跤:8249
跨:8250
跪:8251
路:8252
跳:8253
践:8254
跷:8255
跸:8256
跻:8257
踊:8258
踏:8259
踐:8260
踝:8261
踞:8262
踢:8263
踩:8264
踪:8265
踰:8266
踴:8267
踵:8268
踹:8269
蹂:8270
蹄:8271
蹇:8272
蹈:8273
蹉:8274
蹊:8275
蹋:8276
蹕:8277
蹙:8278
蹟:8279
蹠:8280
蹤:8281
蹦:8282
蹬:8283
蹲:8284
蹴:8285
蹶:8286
蹺:8287
蹼:8288
躁:8289
躄:8290
躅:8291
躇:8292
躉:8293
躊:8294
躋:8295
躍:8296
躏:8297
躑:8298
躓:8299
躙:8300
躪:8301
身:8302
躬:8303
躯:8304
躰:8305
躲:8306
躺:8307
躾:8308
軀:8309
車:8310
軋:8311
軌:8312
軍:8313
軒:8314
軔:8315
軛:8316
軟:8317
転:8318
軫:8319
軸:8320
軻:8321
軼:8322
軽:8323
軾:8324
較:8325
輅:8326
載:8327
輋:8328
輌:8329
輒:8330
輓:8331
輔:8332
輕:8333
輛:8334
輜:8335
輝:8336
輟:8337
輥:8338
輦:8339
輩:8340
輪:8341
輯:8342
輳:8343
輸:8344
輻:8345
輾:8346
輿:8347
轂:8348
轄:8349
轅:8350
轆:8351
轉:8352
轍:8353
轎:8354
轟:8355
轡:8356
轢:8357
轤:8358
车:8359
轧:8360
轨:8361
轩:8362
轫:8363
转:8364
轭:8365
轮:8366
软:8367
轰:8368
轲:8369
轴:8370
轶:8371
轸:8372
轻:8373
轼:8374
载:8375
轿:8376
辂:8377
较:8378
辄:8379
辅:8380
辆:8381
辇:8382
辈:8383
辉:8384
辊:8385
辍:8386
辎:8387
辐:8388
辑:8389
输:8390
辕:8391
辖:8392
辗:8393
辘:8394
辙:8395
辛:8396
辜:8397
辞:8398
辟:8399
辣:8400
辦:8401
辨:8402
辩:8403
辫:8404
辭:8405
辮:8406
辯:8407
辰:8408
辱:8409
農:8410
辶:8411
边:8412
辺:8413
辻:8414
込:8415
辽:8416
达:8417
辿:8418
迁:8419
迂:8420
迄:8421
迅:8422
过:8423
迈:8424
迎:8425
运:8426
近:8427
返:8428
还:8429
这:8430
进:8431
远:8432
违:8433
连:8434
迟:8435
迢:8436
迤:8437
迥:8438
迦:8439
迨:8440
迩:8441
迪:8442
迫:8443
迭:8444
述:8445
迳:8446
迴:8447
迷:8448
迸:8449
迹:8450
迺:8451
追:8452
退:8453
送:8454
适:8455
逃:8456
逄:8457
逅:8458
逆:8459
选:8460
逊:8461
逋:8462
逍:8463
透:8464
逐:8465
逑:8466
递:8467
逓:8468
途:8469
逕:8470
逖:8471
逗:8472
這:8473
通:8474
逛:8475
逝:8476
逞:8477
速:8478
造:8479
逡:8480
逢:8481
連:8482
逮:8483
逯:8484
週:8485
進:8486
逵:8487
逸:8488
逹:8489
逻:8490
逼:8491
逾:8492
遁:8493
遂:8494
遅:8495
遇:8496
遊:8497
運:8498
遍:8499
過:8500
遏:8501
遐:8502
遑:8503
遒:8504
道:8505
達:8506
違:8507
遗:8508
遘:8509
遙:8510
遜:8511
遞:8512
遠:8513
遡:8514
遣:8515
遥:8516
遨:8517
適:8518
遭:8519
遮:8520
遲:8521
遴:8522
遵:8523
遶:8524
遷:8525
選:8526
遹:8527
遺:8528
遼:8529
遽:8530
避:8531
邀:8532
邁:8533
邂:8534
邃:8535
還:8536
邇:8537
邈:8538
邉:8539
邊:8540
邏:8541
邑:8542
邓:8543
邕:8544
邗:8545
邙:8546
邛:8547
邝:8548
邠:8549
邡:8550
邢:8551
那:8552
邦:8553
邨:8554
邪:8555
邬:8556
邮:8557
邯:8558
邰:8559
邱:8560
邳:8561
邴:8562
邵:8563
邸:8564
邹:8565
邺:8566
邻:8567
邽:8568
邾:8569
郁:8570
郃:8571
郅:8572
郇:8573
郊:8574
郎:8575
郑:8576
郓:8577
郕:8578
郗:8579
郛:8580
郜:8581
郝:8582
郞:8583
郡:8584
郢:8585
郤:8586
郦:8587
郧:8588
部:8589
郫:8590
郭:8591
郯:8592
郴:8593
郵:8594
郷:8595
郸:8596
都:8597
郾:8598
郿:8599
鄂:8600
鄄:8601
鄆:8602
鄉:8603
鄒:8604
鄔:8605
鄕:8606
鄖:8607
鄙:8608
鄚:8609
鄜:8610
鄞:8611
鄠:8612
鄢:8613
鄣:8614
鄧:8615
鄭:8616
鄯:8617
鄰:8618
鄱:8619
鄲:8620
鄴:8621
鄺:8622
酆:8623
酈:8624
酉:8625
酊:8626
酋:8627
酌:8628
配:8629
酎:8630
酐:8631
酒:8632
酔:8633
酗:8634
酚:8635
酝:8636
酞:8637
酢:8638
酣:8639
酥:8640
酩:8641
酪:8642
酬:8643
酮:8644
酯:8645
酰:8646
酱:8647
酵:8648
酶:8649
酷:8650
酸:8651
酿:8652
醃:8653
醇:8654
醉:8655
醋:8656
醌:8657
醍:8658
醐:8659
醒:8660
醗:8661
醚:8662
醛:8663
醜:8664
醞:8665
醣:8666
醤:8667
醪:8668
醫:8669
醬:8670
醮:8671
醯:8672
醴:8673
醸:8674
醺:8675
釀:8676
釁:8677
采:8678
釈:8679
釉:8680
释:8681
釋:8682
里:8683
重:8684
野:8685
量:8686
釐:8687
金:8688
釔:8689
釗:8690
釘:8691
釜:8692
針:8693
釣:8694
釤:8695
釧:8696
釩:8697
釵:8698
釷:8699
鈀:8700
鈉:8701
鈍:8702
鈎:8703
鈐:8704
鈑:8705
鈔:8706
鈕:8707
鈞:8708
鈣:8709
鈦:8710
鈮:8711
鈰:8712
鈴:8713
鈷:8714
鈸:8715
鈹:8716
鈺:8717
鈽:8718
鈾:8719
鈿:8720
鉀:8721
鉄:8722
鉅:8723
鉈:8724
鉉:8725
鉋:8726
鉍:8727
鉏:8728
鉑:8729
鉗:8730
鉚:8731
鉛:8732
鉞:8733
鉢:8734
鉤:8735
鉦:8736
鉬:8737
鉭:8738
鉱:8739
鉴:8740
鉸:8741
鉻:8742
鉾:8743
銀:8744
銃:8745
銅:8746
銑:8747
銓:8748
銕:8749
銖:8750
銘:8751
銚:8752
銛:8753
銜:8754
銣:8755
銥:8756
銦:8757
銨:8758
銫:8759
銬:8760
銭:8761
銮:8762
銳:8763
銷:8764
銹:8765
銻:8766
銼:8767
鋁:8768
鋅:8769
鋆:8770
鋇:8771
鋌:8772
鋏:8773
鋐:8774
鋒:8775
鋤:8776
鋪:8777
鋭:8778
鋯:8779
鋰:8780
鋲:8781
鋳:8782
鋸:8783
鋹:8784
鋼:8785
錄:8786
錆:8787
錐:8788
錒:8789
錕:8790
錘:8791
錚:8792
錠:8793
錡:8794
錢:8795
錦:8796
錨:8797
錫:8798
錬:8799
錮:8800
錯:8801
録:8802
錳:8803
錶:8804
錸:8805
鍇:8806
鍊:8807
鍋:8808
鍍:8809
鍔:8810
鍛:8811
鍬:8812
鍮:8813
鍰:8814
鍱:8815
鍵:8816
鍶:8817
鍺:8818
鍼:8819
鍾:8820
鎂:8821
鎊:8822
鎌:8823
鎏:8824
鎔:8825
鎖:8826
鎗:8827
鎘:8828
鎚:8829
鎝:8830
鎢:8831
鎧:8832
鎬:8833
鎭:8834
鎮:8835
鎰:8836
鎳:8837
鎵:8838
鏃:8839
鏈:8840
鏊:8841
鏐:8842
鏑:8843
鏖:8844
鏗:8845
鏘:8846
鏜:8847
鏞:8848
鏟:8849
鏡:8850
鏢:8851
鏤:8852
鏵:8853
鏽:8854
鐐:8855
鐘:8856
鐙:8857
鐡:8858
鐫:8859
鐮:8860
鐲:8861
鐳:8862
鐵:8863
鐸:8864
鐺:8865
鑄:8866
鑅:8867
鑑:8868
鑒:8869
鑓:8870
鑛:8871
鑠:8872
鑣:8873
鑫:8874
鑭:8875
鑰:8876
鑲:8877
鑼:8878
鑽:8879
鑾:8880
鑿:8881
钇:8882
针:8883
钉:8884
钊:8885
钍:8886
钏:8887
钒:8888
钓:8889
钗:8890
钙:8891
钚:8892
钛:8893
钜:8894
钝:8895
钞:8896
钟:8897
钠:8898
钡:8899
钢:8900
钤:8901
钥:8902
钦:8903
钧:8904
钨:8905
钩:8906
钫:8907
钮:8908
钯:8909
钰:8910
钱:8911
钳:8912
钴:8913
钵:8914
钹:8915
钺:8916
钻:8917
钼:8918
钽:8919
钾:8920
钿:8921
铀:8922
铁:8923
铂:8924
铃:8925
铅:8926
铆:8927
铈:8928
铉:8929
铊:8930
铋:8931
铌:8932
铍:8933
铎:8934
铐:8935
铛:8936
铜:8937
铝:8938
铟:8939
铠:8940
铢:8941
铣:8942
铤:8943
铧:8944
铨:8945
铫:8946
铬:8947
铭:8948
铮:8949
铯:8950
铰:8951
铱:8952
铲:8953
铳:8954
铵:8955
银:8956
铷:8957
铸:8958
铺:8959
铼:8960
链:8961
铿:8962
销:8963
锁:8964
锂:8965
锄:8966
锅:8967
锆:8968
锈:8969
锉:8970
锋:8971
锌:8972
锐:8973
锑:8974
锕:8975
锗:8976
错:8977
锚:8978
锜:8979
锝:8980
锟:8981
锡:8982
锢:8983
锣:8984
锤:8985
锥:8986
锦:8987
锭:8988
键:8989
锯:8990
锰:8991
锴:8992
锵:8993
锶:8994
锷:8995
锹:8996
锺:8997
锻:8998
锽:8999
锾:9000
镀:9001
镁:9002
镂:9003
镇:9004
镉:9005
镌:9006
镍:9007
镐:9008
镑:9009
镒:9010
镓:9011
镕:9012
镖:9013
镗:9014
镛:9015
镜:9016
镝:9017
镠:9018
镧:9019
镫:9020
镭:9021
镯:9022
镰:9023
镳:9024
镶:9025
長:9026
长:9027
門:9028
閂:9029
閃:9030
閆:9031
閉:9032
開:9033
閎:9034
閏:9035
閑:9036
閒:9037
間:9038
閔:9039
閘:9040
閡:9041
関:9042
閣:9043
閤:9044
閥:9045
閨:9046
閩:9047
閬:9048
閭:9049
閱:9050
閲:9051
閹:9052
閻:9053
閼:9054
閾:9055
闆:9056
闇:9057
闈:9058
闊:9059
闋:9060
闌:9061
闍:9062
闐:9063
闓:9064
闔:9065
闕:9066
闖:9067
闘:9068
關:9069
闞:9070
闡:9071
闢:9072
闥:9073
门:9074
闩:9075
闪:9076
闫:9077
闭:9078
问:9079
闯:9080
闰:9081
闱:9082
闲:9083
闳:9084
间:9085
闵:9086
闷:9087
闸:9088
闹:9089
闺:9090
闻:9091
闼:9092
闽:9093
闾:9094
闿:9095
阀:9096
阁:9097
阂:9098
阅:9099
阆:9100
阇:9101
阈:9102
阉:9103
阎:9104
阏:9105
阐:9106
阑:9107
阔:9108
阕:9109
阖:9110
阗:9111
阙:9112
阚:9113
阜:9114
阝:9115
队:9116
阡:9117
阪:9118
阮:9119
阯:9120
阱:9121
防:9122
阳:9123
阴:9124
阵:9125
阶:9126
阻:9127
阿:9128
陀:9129
陂:9130
附:9131
际:9132
陆:9133
陇:9134
陈:9135
陉:9136
陋:9137
陌:9138
降:9139
限:9140
陔:9141
陕:9142
陘:9143
陛:9144
陜:9145
陝:9146
陞:9147
陟:9148
陡:9149
院:9150
陣:9151
除:9152
陥:9153
陨:9154
险:9155
陪:9156
陰:9157
陲:9158
陳:9159
陵:9160
陶:9161
陷:9162
陸:9163
険:9164
陽:9165
隅:9166
隆:9167
隈:9168
隊:9169
隋:9170
隍:9171
階:9172
随:9173
隐:9174
隔:9175
隕:9176
隗:9177
隘:9178
隙:9179
際:9180
障:9181
隠:9182
隣:9183
隧:9184
隨:9185
險:9186
隰:9187
隱:9188
隴:9189
隶:9190
隷:9191
隸:9192
隹:9193
隻:9194
隼:9195
隽:9196
难:9197
雀:9198
雁:9199
雄:9200
雅:9201
集:9202
雇:9203
雉:9204
雋:9205
雌:9206
雍:9207
雎:9208
雏:9209
雑:9210
雒:9211
雕:9212
雖:9213
雙:9214
雛:9215
雜:9216
雞:9217
雠:9218
離:9219
難:9220
雨:9221
雩:9222
雪:9223
雫:9224
雯:9225
雰:9226
雲:9227
雳:9228
零:9229
雷:9230
雹:9231
電:9232
雾:9233
需:9234
霁:9235
霄:9236
霆:9237
震:9238
霈:9239
霉:9240
霊:9241
霍:9242
霎:9243
霏:9244
霑:9245
霓:9246
霖:9247
霜:9248
霞:9249
霧:9250
霭:9251
霰:9252
露:9253
霸:9254
霹:9255
霽:9256
霾:9257
靂:9258
靄:9259
靈:9260
靑:9261
青:9262
靓:9263
靖:9264
静:9265
靚:9266
靛:9267
靜:9268
非:9269
靠:9270
靡:9271
面:9272
革:9273
靭:9274
靱:9275
靳:9276
靴:9277
靶:9278
靺:9279
靼:9280
鞄:9281
鞅:9282
鞆:9283
鞋:9284
鞍:9285
鞏:9286
鞑:9287
鞘:9288
鞞:9289
鞠:9290
鞣:9291
鞦:9292
鞨:9293
鞫:9294
鞬:9295
鞭:9296
鞮:9297
鞴:9298
韃:9299
韆:9300
韋:9301
韌:9302
韓:9303
韜:9304
韞:9305
韦:9306
韧:9307
韩:9308
韫:9309
韬:9310
韭:9311
韮:9312
音:9313
韵:9314
韶:9315
韻:9316
響:9317
頁:9318
頂:9319
頃:9320
項:9321
順:9322
須:9323
頊:9324
頌:9325
預:9326
頑:9327
頒:9328
頓:9329
頗:9330
領:9331
頚:9332
頜:9333
頠:9334
頡:9335
頤:9336
頦:9337
頫:9338
頬:9339
頭:9340
頰:9341
頴:9342
頵:9343
頷:9344
頸:9345
頹:9346
頻:9347
頼:9348
頽:9349
顆:9350
題:9351
額:9352
顎:9353
顏:9354
顒:9355
顓:9356
顔:9357
顕:9358
顗:9359
願:9360
顛:9361
類:9362
顥:9363
顧:9364
顫:9365
顯:9366
顰:9367
顱:9368
顳:9369
页:9370
顶:9371
顷:9372
项:9373
顺:9374
须:9375
顼:9376
顽:9377
顾:9378
顿:9379
颁:9380
颂:9381
预:9382
颅:9383
领:9384
颇:9385
颈:9386
颉:9387
颊:9388
颌:9389
颍:9390
颏:9391
颐:9392
频:9393
颓:9394
颔:9395
颖:9396
颗:9397
题:9398
颙:9399
颚:9400
颛:9401
颜:9402
额:9403
颞:9404
颠:9405
颢:9406
颤:9407
風:9408
颯:9409
颱:9410
颳:9411
颶:9412
飄:9413
飆:9414
飈:9415
风:9416
飒:9417
飓:9418
飘:9419
飙:9420
飚:9421
飛:9422
飜:9423
飞:9424
食:9425
飡:9426
飢:9427
飨:9428
飩:9429
飪:9430
飫:9431
飭:9432
飮:9433
飯:9434
飲:9435
飴:9436
飼:9437
飽:9438
飾:9439
餃:9440
餅:9441
餉:9442
養:9443
餌:9444
餐:9445
餓:9446
餘:9447
餚:9448
餞:9449
餡:9450
館:9451
餮:9452
餵:9453
餾:9454
饅:9455
饉:9456
饋:9457
饌:9458
饑:9459
饒:9460
饕:9461
饗:9462
饥:9463
饪:9464
饬:9465
饭:9466
饮:9467
饯:9468
饰:9469
饱:9470
饲:9471
饵:9472
饶:9473
饷:9474
饺:9475
饼:9476
饿:9477
馀:9478
馅:9479
馆:9480
馈:9481
馏:9482
馑:9483
馒:9484
馔:9485
首:9486
馗:9487
馘:9488
香:9489
馥:9490
馨:9491
馬:9492
馭:9493
馮:9494
馱:9495
馳:9496
馴:9497
駁:9498
駄:9499
駅:9500
駆:9501
駈:9502
駐:9503
駒:9504
駕:9505
駙:9506
駛:9507
駝:9508
駟:9509
駢:9510
駭:9511
駱:9512
駸:9513
駿:9514
騁:9515
騎:9516
騏:9517
騒:9518
験:9519
騙:9520
騨:9521
騫:9522
騭:9523
騮:9524
騰:9525
騶:9526
騷:9527
騾:9528
驃:9529
驅:9530
驊:9531
驍:9532
驒:9533
驕:9534
驗:9535
驚:9536
驛:9537
驟:9538
驢:9539
驤:9540
驥:9541
驩:9542
驪:9543
马:9544
驭:9545
驮:9546
驯:9547
驰:9548
驱:9549
驳:9550
驴:9551
驶:9552
驷:9553
驸:9554
驹:9555
驺:9556
驻:9557
驼:9558
驾:9559
驿:9560
骁:9561
骂:9562
骄:9563
骅:9564
骆:9565
骇:9566
骈:9567
骊:9568
骋:9569
验:9570
骏:9571
骐:9572
骑:9573
骗:9574
骘:9575
骚:9576
骝:9577
骞:9578
骠:9579
骡:9580
骤:9581
骥:9582
骧:9583
骨:9584
骯:9585
骰:9586
骶:9587
骷:9588
骸:9589
骼:9590
髀:9591
髂:9592
髄:9593
髅:9594
髋:9595
髏:9596
髑:9597
髒:9598
髓:9599
體:9600
髖:9601
高:9602
髙:9603
髡:9604
髣:9605
髦:9606
髪:9607
髭:9608
髮:9609
髯:9610
髴:9611
髷:9612
髹:9613
髻:9614
鬃:9615
鬆:9616
鬍:9617
鬓:9618
鬘:9619
鬚:9620
鬟:9621
鬢:9622
鬣:9623
鬥:9624
鬧:9625
鬨:9626
鬪:9627
鬬:9628
鬯:9629
鬱:9630
鬲:9631
鬻:9632
鬼:9633
魁:9634
魂:9635
魃:9636
魄:9637
魅:9638
魇:9639
魉:9640
魋:9641
魍:9642
魎:9643
魏:9644
魑:9645
魔:9646
魘:9647
魚:9648
魟:9649
魣:9650
魨:9651
魮:9652
魯:9653
魴:9654
魷:9655
鮃:9656
鮄:9657
鮈:9658
鮋:9659
鮎:9660
鮑:9661
鮒:9662
鮗:9663
鮟:9664
鮠:9665
鮡:9666
鮨:9667
鮪:9668
鮫:9669
鮭:9670
鮮:9671
鯉:9672
鯊:9673
鯒:9674
鯓:9675
鯔:9676
鯖:9677
鯙:9678
鯛:9679
鯡:9680
鯤:9681
鯧:9682
鯨:9683
鯪:9684
鯰:9685
鯱:9686
鯵:9687
鯷:9688
鯽:9689
鰂:9690
鰈:9691
鰍:9692
鰐:9693
鰓:9694
鰕:9695
鰧:9696
鰨:9697
鰩:9698
鰭:9699
鰯:9700
鰲:9701
鰹:9702
鰺:9703
鰻:9704
鰾:9705
鱂:9706
鱇:9707
鱈:9708
鱉:9709
鱒:9710
鱔:9711
鱗:9712
鱘:9713
鱚:9714
鱟:9715
鱥:9716
鱧:9717
鱨:9718
鱲:9719
鱵:9720
鱷:9721
鱸:9722
鱺:9723
鱼:9724
鱿:9725
鲀:9726
鲁:9727
鲂:9728
鲆:9729
鲇:9730
鲈:9731
鲉:9732
鲍:9733
鲎:9734
鲑:9735
鲔:9736
鲗:9737
鲛:9738
鲜:9739
鲟:9740
鲡:9741
鲣:9742
鲤:9743
鲨:9744
鲫:9745
鲬:9746
鲭:9747
鲮:9748
鲱:9749
鲲:9750
鲳:9751
鲶:9752
鲷:9753
鲸:9754
鲹:9755
鲻:9756
鲽:9757
鲿:9758
鳀:9759
鳃:9760
鳄:9761
鳅:9762
鳉:9763
鳌:9764
鳍:9765
鳎:9766
鳐:9767
鳔:9768
鳕:9769
鳖:9770
鳗:9771
鳚:9772
鳝:9773
鳞:9774
鳟:9775
鳢:9776
鳥:9777
鳧:9778
鳩:9779
鳳:9780
鳴:9781
鳶:9782
鴇:9783
鴈:9784
鴉:9785
鴎:9786
鴒:9787
鴕:9788
鴛:9789
鴝:9790
鴞:9791
鴟:9792
鴣:9793
鴦:9794
鴨:9795
鴫:9796
鴻:9797
鴿:9798
鵄:9799
鵑:9800
鵙:9801
鵜:9802
鵝:9803
鵞:9804
鵟:9805
鵠:9806
鵡:9807
鵬:9808
鵯:9809
鵰:9810
鵲:9811
鵺:9812
鶇:9813
鶉:9814
鶏:9815
鶘:9816
鶚:9817
鶥:9818
鶯:9819
鶲:9820
鶴:9821
鶺:9822
鶻:9823
鶿:9824
鷂:9825
鷄:9826
鷓:9827
鷗:9828
鷯:9829
鷲:9830
鷸:9831
鷹:9832
鷺:9833
鸕:9834
鸚:9835
鸛:9836
鸞:9837
鸟:9838
鸠:9839
鸡:9840
鸢:9841
鸣:9842
鸥:9843
鸦:9844
鸨:9845
鸪:9846
鸫:9847
鸬:9848
鸭:9849
鸮:9850
鸯:9851
鸰:9852
鸲:9853
鸳:9854
鸵:9855
鸽:9856
鸾:9857
鸿:9858
鹀:9859
鹃:9860
鹄:9861
鹅:9862
鹈:9863
鹉:9864
鹊:9865
鹌:9866
鹎:9867
鹏:9868
鹑:9869
鹕:9870
鹗:9871
鹘:9872
鹚:9873
鹛:9874
鹞:9875
鹟:9876
鹡:9877
鹤:9878
鹦:9879
鹧:9880
鹩:9881
鹫:9882
鹬:9883
鹭:9884
鹮:9885
鹰:9886
鹳:9887
鹵:9888
鹸:9889
鹹:9890
鹼:9891
鹽:9892
鹿:9893
麁:9894
麂:9895
麋:9896
麒:9897
麓:9898
麗:9899
麝:9900
麟:9901
麤:9902
麥:9903
麦:9904
麩:9905
麴:9906
麵:9907
麸:9908
麹:9909
麺:9910
麻:9911
麼:9912
麽:9913
麾:9914
麿:9915
黃:9916
黄:9917
黌:9918
黍:9919
黎:9920
黏:9921
黐:9922
黑:9923
黒:9924
黔:9925
默:9926
黙:9927
黛:9928
黜:9929
黝:9930
點:9931
黟:9932
黠:9933
黥:9934
黨:9935
黯:9936
黴:9937
黻:9938
黼:9939
鼈:9940
鼎:9941
鼐:9942
鼓:9943
鼠:9944
鼩:9945
鼬:9946
鼯:9947
鼱:9948
鼴:9949
鼹:9950
鼻:9951
齊:9952
齋:9953
齎:9954
齐:9955
齒:9956
齟:9957
齡:9958
齢:9959
齣:9960
齦:9961
齧:9962
齬:9963
齶:9964
齿:9965
龄:9966
龈:9967
龍:9968
龐:9969
龑:9970
龔:9971
龕:9972
龙:9973
龚:9974
龛:9975
龜:9976
龟:9977
龢:9978
龸:9979
de:10102
the:10103
in:10104
sa:10105
la:10106
##s:10107
of:10108
en:10109
and:10110
##e:10111
##a:10112
ang:10113
to:10114
##n:10115
##i:10116
el:10117
der:10118
un:10119
di:10120
die:10121
nga:10122
##t:10123
on:10125
que:10126
is:10127
se:10128
den:10129
le:10130
##r:10131
##o:10132
ar:10133
del:10134
na:10135
##u:10136
et:10137
und:10138
for:10139
was:10140
da:10141
##en:10142
des:10143
an:10144
il:10145
as:10146
van:10147
je:10149
##m:10150
by:10151
les:10152
es:10153
do:10154
una:10155
nasa:10156
##y:10158
##l:10159
at:10160
al:10161
er:10162
##d:10163
og:10164
##es:10165
km:10166
##k:10167
von:10168
du:10169
with:10171
con:10173
per:10174
los:10175
##er:10177
av:10179
med:10180
no:10181
est:10182
het:10184
och:10186
dem:10188
por:10190
he:10191
su:10192
si:10193
som:10194
from:10195
it:10197
species:10201
pa:10202
that:10203
earth:10204
im:10205
##na:10206
een:10207
##an:10208
ja:10209
han:10210
##ta:10211
dan:10214
das:10216
##te:10218
ni:10219
##ne:10220
ug:10221
va:10222
isbn:10223
world:10228
om:10230
als:10233
mit:10234
his:10235
ka:10237
te:10238
para:10239
ha:10240
com:10241
##h:10243
como:10245
new:10246
##re:10247
data:10248
une:10249
##da:10250
##g:10251
em:10252
os:10253
observations:10254
au:10257
##us:10258
##c:10261
##in:10262
par:10263
las:10265
panoramas:10267
viewfinder:10268
palibot:10269
gikan:10270
sie:10271
dans:10272
##on:10273
det:10274
##ni:10275
##ch:10277
##ia:10278
nasod:10279
##ra:10281
##de:10282
che:10283
##ing:10285
life:10287
son:10289
yang:10290
az:10293
##ja:10295
so:10297
geonames:10298
ein:10299
##le:10301
til:10303
op:10305
od:10307
nel:10308
##is:10310
##z:10311
ve:10312
war:10313
milimetro:10315
um:10316
ne:10317
wurde:10318
are:10320
mas:10321
della:10322
over:10323
fur:10325
database:10326
##os:10327
##no:10329
##ti:10330
zu:10331
september:10333
var:10334
##la:10335
##et:10337
catalogue:10338
ist:10339
updated:10341
were:10342
pour:10343
sur:10344
am:10345
be:10346
har:10347
co:10348
auf:10350
##do:10351
##se:10352
za:10354
org:10355
##ka:10358
which:10359
eine:10361
or:10362
ii:10365
##to:10366
all:10367
##nt:10368
##ar:10370
bulan:10371
this:10372
##p:10373
mga:10374
##va:10375
##je:10378
qui:10379
##ma:10380
mot:10381
kasarangang:10385
lo:10387
film:10388
mm:10389
##ed:10390
ou:10391
kilometro:10393
also:10398
one:10399
##ca:10402
first:10403
post:10404
entre:10405
finns:10406
had:10407
##li:10408
sich:10409
ny:10410
bahin:10413
po:10415
##as:10416
##b:10417
san:10418
uk:10419
era:10420
##ce:10421
##ng:10422
nam:10423
ed:10424
##ri:10425
dos:10426
##j:10428
ur:10429
eta:10430
may:10431
roku:10433
##v:10434
university:10435
has:10438
nach:10439
trakten:10440
history:10441
enero:10442
dari:10443
rainfall:10444
ulan:10447
checklist:10449
nahimutang:10451
red:10452
##ie:10453
met:10456
##ko:10457
##si:10459
runt:10460
voor:10461
##sa:10462
itis:10463
foi:10464
album:10465
non:10466
cc:10467
john:10469
aus:10470
mexico:10471
system:10472
##al:10476
uma:10477
bei:10478
download:10479
orrell:10480
##f:10481
annual:10482
her:10483
classification:10485
set:10486
their:10487
who:10488
its:10491
trong:10492
este:10494
fra:10495
bug:10496
not:10497
dei:10498
##ke:10499
cua:10500
algoritmo:10501
but:10502
##ment:10503
reading:10504
ma:10507
anaa:10508
population:10509
dinhi:10510
bis:10511
kirk:10512
af:10513
ze:10514
after:10515
avec:10516
##it:10517
auch:10519
##ki:10523
bourgoin:10524
me:10525
yn:10526
bailly:10527
roskov:10528
baillargeon:10529
paglinawan:10530
##ci:10532
under:10533
index:10534
two:10536
##em:10537
kasadpan:10538
dat:10539
gitas:10540
ser:10542
pada:10543
ir:10544
familia:10545
ta:10546
##ga:10547
alla:10548
national:10551
##at:10552
##um:10553
##mi:10555
mais:10557
sua:10559
york:10560
www:10561
men:10562
##ly:10563
man:10564
fue:10565
ulohan:10566
door:10567
manaden:10570
she:10572
time:10573
have:10574
city:10575
kalkulado:10577
they:10578
##ba:10579
##ur:10585
land:10586
doi:10587
nederbord:10588
ligger:10590
meter:10591
##ge:10592
ya:10593
mai:10597
##ve:10598
american:10600
##za:10601
esta:10602
fran:10603
dia:10604
klima:10605
##st:10607
plus:10608
bir:10610
uit:10611
habagatan:10612
ho:10616
parte:10617
press:10618
general:10619
ao:10620
din:10621
##ndo:10622
zijn:10623
##el:10624
##io:10625
amb:10627
amihanan:10628
##man:10629
ce:10630
zum:10631
ibabaw:10633
http:10635
april:10636
loai:10637
november:10638
##ro:10639
els:10641
saint:10642
ini:10643
mao:10644
serie:10647
part:10649
##w:10650
yuta:10651
state:10652
giiniton:10655
hij:10656
dell:10657
##ny:10658
kinabugnawan:10659
kinainitan:10660
##x:10661
been:10662
county:10663
werd:10665
school:10666
international:10668
metros:10670
genus:10671
einer:10673
seu:10674
other:10675
nicolson:10676
sidlakan:10677
ca:10678
qu:10679
united:10681
club:10682
##den:10683
sulod:10685
##ul:10686
##lo:10687
##me:10688
tu:10689
##mente:10691
dalam:10693
ett:10694
come:10695
##ju:10698
ouvrard:10699
up:10700
bisby:10701
##ten:10702
ngan:10703
when:10704
werden:10705
mer:10706
cu:10707
mission:10708
##ya:10709
tot:10712
model:10713
estado:10714
oli:10715
retrieved:10716
paris:10718
michael:10721
dengan:10722
august:10723
sciences:10724
elle:10725
##ung:10728
iii:10729
durch:10730
##ze:10732
sont:10735
##ji:10739
sin:10742
can:10743
##ek:10745
jako:10746
##ku:10747
dagat:10748
month:10750
sobre:10751
##nya:10753
tropical:10754
france:10757
juli:10759
zur:10760
dal:10761
us:10763
digital:10764
into:10765
ingar:10767
there:10768
during:10770
ben:10771
more:10772
##or:10774
till:10775
##di:10777
dunay:10778
william:10779
pag:10781
delen:10784
##om:10785
##ak:10787
cac:10788
aan:10790
pero:10791
area:10793
map:10794
pas:10795
maria:10796
##ban:10799
##ow:10800
nicht:10801
ble:10803
nay:10804
##co:10805
december:10806
nella:10807
south:10808
##kan:10809
monitoring:10810
ad:10816
year:10817
##go:10818
##ho:10819
team:10820
states:10821
ng:10822
nord:10823
tuig:10825
park:10826
tv:10827
usa:10828
##lar:10829
matag:10830
trmm:10832
kinabasaan:10833
kinaugahan:10834
st:10836
mo:10837
music:10838
iz:10839
aux:10840
climate:10841
oder:10843
later:10844
einem:10847
genomsnittlig:10848
nan:10849
anos:10850
durante:10851
untuk:10852
nahilalakip:10853
kahaboga:10854
you:10855
region:10857
sind:10858
uber:10859
tres:10860
landet:10861
bi:10863
ginkuha:10864
havet:10865
jean:10867
years:10868
dels:10869
##ts:10870
out:10871
north:10873
due:10875
ei:10876
sus:10877
paul:10878
suba:10879
anvandare:10880
algoritmen:10881
algoritmer:10882
lsjbot:10884
att:10885
hojduppgifter:10886
wird:10888
most:10889
uska:10891
##ler:10892
adalah:10894
ziren:10897
cover:10899
ki:10900
art:10901
only:10902
koppen:10903
david:10904
geiger:10905
peel:10906
hess:10909
quan:10910
##ha:10911
london:10912
lake:10913
hini:10915
three:10916
robert:10918
bu:10920
lui:10921
##ren:10922
fan:10923
finlayson:10924
hulyo:10925
hydrology:10926
gikuha:10928
januari:10930
west:10932
##ns:10933
vi:10934
about:10935
elevation:10938
agosto:10939
voi:10940
delle:10943
band:10945
version:10947
than:10948
ete:10951
##ir:10952
ye:10953
river:10954
alle:10955
subspecies:10956
godine:10958
final:10960
fu:10961
familjen:10964
oktober:10965
juni:10968
some:10970
ban:10972
##cio:10973
##sen:10976
ngc:10977
##sta:10978
jest:10980
second:10981
where:10982
kada:10983
lalawigan:10984
##cion:10985
between:10986
familie:10987
song:10988
inga:10989
##jo:10990
ginhulagway:10991
##lla:10992
nu:10993
tai:10994
##tu:10998
##nu:10999
kan:11001
league:11002
series:11003
einen:11004
wie:11005
piu:11006
would:11008
ke:11009
ses:11010
washington:11013
waray:11014
huvudstaden:11015
grand:11016
##ik:11017
nakalista:11018
mes:11019
sumala:11020
asteroid:11022
##des:11028
grande:11031
##ria:11032
james:11033
framraknat:11035
##wa:11038
sono:11039
kay:11040
comme:11043
##be:11044
rehiyon:11046
peter:11047
##ter:11048
charles:11049
made:11050
hans:11051
rio:11052
high:11053
ved:11054
##ou:11055
slaktet:11057
him:11060
pro:11061
company:11062
tahun:11063
##am:11064
millimeter:11066
anche:11067
##ine:11068
group:11069
division:11070
eller:11071
kallaste:11072
kwadrado:11073
##ky:11074
##tes:11075
varmaste:11076
arsmedeltemperaturen:11077
blev:11078
medeltemperaturen:11079
beskrevs:11080
deux:11081
##rs:11082
density:11083
bronnen:11085
vun:11086
george:11087
ab:11088
district:11091
##ben:11092
##ske:11094
ano:11096
underarter:11097
forma:11098
##tion:11101
##ski:11102
estados:11103
vom:11106
nguoi:11107
wurden:11108
noten:11110
day:11111
modis:11113
##cao:11115
referenties:11116
bo:11117
hapit:11118
nie:11119
then:11120
gran:11121
##ers:11122
##ov:11123
place:11125
nalukop:11127
##un:11128
##ina:11129
ook:11130
dapit:11131
sao:11132
tour:11133
long:11134
listade:11138
air:11140
tien:11143
cette:11144
genomsnitt:11145
best:11146
america:11147
przez:11148
torraste:11150
arsnederbord:11151
regnigaste:11152
my:11153
sebagai:11155
##ssa:11156
love:11157
gli:11158
sud:11159
##ry:11160
born:11161
li:11162
unter:11164
such:11165
india:11166
invanare:11167
union:11168
##gi:11169
kvadratkilometer:11170
used:11173
solo:11174
##ste:11176
house:11177
pe:11178
##zi:11180
##ic:11183
##que:11184
radius:11186
##ska:11187
central:11188
nahimutangan:11189
hoc:11190
radio:11191
hat:11193
##rt:11194
lungsod:11195
known:11197
##il:11199
ci:11200
ten:11201
rock:11202
tanan:11203
dhe:11205
gihabogon:11207
kinahabogang:11208
##land:11209
##ion:11210
unidos:11212
seine:11213
family:11214
berlin:11215
museum:11217
##ot:11218
dass:11220
name:11221
while:11222
##nte:11223
tawo:11224
guerra:11225
bat:11226
people:11227
pakigbingkil:11228
will:11229
sedac:11230
society:11232
tra:11234
martin:11235
ko:11236
average:11237
vor:11239
base:11240
##dos:11241
##ok:11243
naam:11245
##mo:11246
##ig:11248
college:11249
president:11250
##ista:11251
##nia:11253
##ita:11255
iv:11256
santa:11257
care:11258
##vo:11259
many:11260
thomas:11265
pod:11266
lan:11267
cho:11268
these:11269
zen:11271
##ton:11272
dit:11273
##ut:11274
nacional:11275
bij:11277
##ii:11278
ai:11279
##res:11280
july:11281
through:11284
information:11285
season:11286
egy:11288
british:11289
kao:11290
point:11291
merupakan:11293
hoa:11294
##id:11296
##zione:11298
##les:11300
single:11304
ile:11305
richard:11306
oxford:11307
canada:11309
via:11310
we:11312
##das:11313
oleh:11314
##nie:11317
any:11318
##ica:11319
age:11323
march:11324
well:11327
desde:11328
##che:11329
june:11332
thanh:11333
inom:11334
go:11335
game:11336
mar:11337
bien:11338
metro:11340
prima:11341
cm:11342
live:11343
east:11344
##ken:11345
public:11347
ning:11348
##nen:11351
being:11352
##ea:11353
##iu:11355
sau:11356
apres:11357
records:11358
them:11359
noch:11360
mars:11362
niini:11363
before:11364
became:11365
soort:11368
pp:11370
including:11371
nao:11373
creek:11377
##ol:11378
video:11379
village:11380
##gen:11381
tambien:11382
original:11383
waren:11385
sein:11386
##berg:11388
provincia:11389
show:11391
indonesia:11393
europa:11394
number:11395
koji:11396
top:11397
cerro:11398
vol:11399
jose:11400
##cia:11401
home:11402
fa:11403
social:11404
##ty:11406
dr:11407
##nd:11408
island:11409
total:11410
october:11411
jahr:11412
ut:11413
##vi:11414
oraz:11415
service:11416
black:11418
football:11420
end:11421
both:11422
against:11423
star:11424
eerst:11425
cung:11427
##ner:11428
award:11430
hadton:11431
station:11433
##th:11434
ali:11435
list:11438
nhung:11439
won:11441
populasyon:11442
four:11443
stato:11445
uno:11446
##he:11448
re:11449
nur:11450
thang:11452
january:11453
##nes:11454
##lle:11455
media:11456
census:11457
roman:11458
##ning:11459
ex:11460
densidad:11461
sebuah:11462
hi:11463
##ada:11466
local:11467
times:11471
italia:11472
center:11473
fost:11476
king:11479
open:11481
modern:11485
festival:11491
andre:11496
work:11497
pay:11498
nos:11499
since:11500
seit:11501
sakop:11502
vuonna:11503
sidlakang:11506
kilometer:11509
suo:11510
##ado:11511
nombre:11512
##so:11513
century:11516
dalla:11517
byl:11519
sous:11520
##au:11521
##ble:11522
what:11523
amin:11524
##nde:11525
if:11526
volt:11527
radie:11529
don:11530
like:11531
##tt:11532
fait:11533
centre:11534
louis:11535
premier:11536
ale:11538
##ant:11539
##vat:11541
nom:11542
dopo:11543
##ida:11548
ubos:11549
nem:11550
##ll:11552
lac:11553
hasta:11554
tre:11555
commune:11556
##zo:11560
##q:11561
major:11562
espesye:11563
hogy:11564
real:11565
##lt:11566
##lu:11567
casa:11568
primer:11570
kabanay:11571
until:11573
however:11574
##cu:11575
joseph:11576
hun:11577
##der:11578
historia:11579
chi:11581
line:11585
cui:11586
wa:11587
royal:11590
gia:11592
ont:11593
government:11594
##pa:11596
##pe:11599
##tas:11600
cup:11602
##ent:11604
##mento:11605
abril:11606
early:11607
contra:11608
ogsa:11609
association:11610
encyclopedia:11611
ay:11612
##len:11613
vao:11614
pri:11615
naar:11616
deze:11617
##ite:11619
seiner:11621
take:11622
##are:11623
komon:11624
gilay:11625
talagsaon:11626
itandi:11627
now:11628
town:11630
roce:11632
##ist:11633
sowie:11635
news:11636
cong:11638
worden:11639
ing:11640
gepubliceerd:11644
wetenschappelijke:11647
##du:11652
california:11653
##ad:11655
white:11657
zwei:11658
main:11659
program:11660
science:11661
vid:11662
thuc:11663
sem:11664
spesies:11665
januar:11666
gada:11667
##nych:11668
geldig:11669
hill:11670
niya:11671
hall:11672
pierre:11676
back:11677
kahenera:11678
ia:11680
power:11681
zeuden:11683
sul:11684
##ai:11685
hatte:11688
##by:11690
site:11692
anni:11693
sistema:11694
##hi:11695
##ger:11696
meg:11697
anno:11698
kinadul:11699
primera:11701
dakong:11702
last:11706
china:11707
gihulagway:11708
jahre:11709
released:11711
aber:11712
same:11714
juga:11716
wala:11717
##men:11719
based:11720
kingdom:11721
called:11723
##lich:11725
sig:11726
party:11727
patag:11728
##mu:11729
##ck:11732
dar:11733
seus:11734
fc:11735
partir:11736
old:11737
bagian:11738
siak:11739
february:11740
##nik:11741
ra:11742
karon:11744
pagka:11745
following:11746
ga:11747
nalista:11748
ville:11750
provinsen:11751
natural:11753
##ien:11754
cd:11755
meme:11756
played:11757
australia:11758
journal:11759
##zen:11760
##ies:11763
nun:11766
##ian:11767
book:11768
italian:11770
##ischen:11771
diese:11772
principal:11773
rader:11774
khoa:11777
thu:11778
tinh:11780
##ert:11781
several:11782
law:11785
etre:11787
zwischen:11788
henry:11789
stanovnika:11791
##ere:11792
mi:11793
##son:11796
ic:11797
quando:11798
##ana:11801
cap:11802
young:11803
lang:11804
english:11807
khong:11808
church:11809
dieser:11810
see:11811
##ach:11812
antonio:11813
hon:11817
##ire:11818
nome:11819
tri:11820
vo:11821
cada:11822
##ron:11823
##ische:11824
##idae:11825
naselje:11826
culture:11828
premiere:11831
kini:11832
pentru:11833
italy:11835
bay:11836
smith:11837
great:11838
khi:11839
ikke:11840
jan:11842
efter:11845
##ura:11846
women:11847
juan:11848
vez:11851
net:11852
niet:11853
numero:11855
off:11856
form:11857
eines:11858
##ru:11859
enligt:11860
insee:11862
februari:11864
research:11865
director:11866
nje:11867
use:11868
opera:11870
small:11871
etait:11873
terrangen:11874
namngivna:11875
former:11876
degli:11877
##bi:11880
wordt:11881
habagatang:11882
routledge:11884
each:11885
madrid:11887
nei:11888
television:11889
punto:11891
role:11892
pais:11893
##ted:11894
roma:11895
bbc:11896
cambridge:11897
ngay:11898
narheten:11900
death:11901
street:11902
web:11903
##ini:11905
vat:11906
fin:11907
##ud:11909
nova:11910
##ata:11911
ans:11912
country:11913
##sk:11914
england:11915
marie:11916
water:11917
izd:11919
play:11923
member:11924
road:11925
leur:11926
europe:11927
maar:11929
dont:11930
##val:11931
##rio:11932
wat:11934
record:11935
etter:11936
japan:11937
hai:11938
##ige:11939
jeho:11942
depuis:11944
bungtod:11946
##im:11947
nog:11948
##rd:11949
regia:11951
kasadpang:11953
norte:11954
marine:11955
tom:11956
production:11961
##cht:11962
myos:11963
##dor:11964
christian:11965
vida:11966
daniel:11967
##ene:11968
punkten:11969
order:11970
found:11973
mei:11974
little:11975
##bo:11976
pela:11977
##nin:11978
finale:11979
atau:11980
olan:11981
mark:11982
zona:11984
pdf:11985
debut:11986
##ley:11988
hogsta:11990
prema:11992
##tte:11993
centro:11995
augusti:11996
francisco:11997
kabungtoran:11998
special:11999
edition:12001
ele:12002
olarak:12003
seva:12004
##ych:12006
kunze:12007
kg:12008
##ks:12009
donde:12011
utc:12012
jo:12013
tambem:12014
saison:12016
tidak:12017
capital:12020
pre:12021
tan:12022
wever:12023
##ling:12024
culham:12026
office:12027
popular:12028
side:12029
present:12032
xa:12033
ciudad:12034
cuando:12038
##lik:12040
musica:12041
internet:12044
sentro:12045
third:12047
five:12049
good:12050
frank:12051
games:12052
fr:12053
##sti:12054
##ova:12055
##ran:12056
omgivningarna:12057
thi:12059
nell:12060
kondado:12061
big:12062
karl:12064
itu:12068
thuoc:12069
insecta:12070
studio:12071
fut:12072
##chen:12073
night:12074
gegen:12075
development:12077
project:12078
plants:12079
##era:12080
##dae:12081
stadt:12082
februar:12083
near:12084
##ier:12085
nr:12086
online:12087
down:12090
province:12092
jahren:12093
##ej:12094
##nda:12095
around:12096
phan:12097
grupo:12098
institute:12099
ong:12100
ky:12101
xix:12102
##ice:12103
force:12104
ainsi:12105
##gan:12106
berg:12107
pelo:12108
european:12110
manga:12111
french:12112
uz:12115
eds:12116
western:12118
animalia:12119
located:12120
eerste:12122
##ven:12123
six:12124
just:12125
##tor:12127
ersten:12129
##ius:12130
noi:12132
onder:12133
##han:12134
german:12136
andere:12137
##nje:12138
ces:12139
way:12140
##lan:12143
nad:12145
alors:12148
held:12149
jego:12150
championship:12151
mat:12152
professor:12156
story:12159
ili:12161
another:12162
adolah:12163
##gu:12164
##tus:12165
large:12166
began:12167
##ee:12168
children:12171
##zy:12172
jr:12173
left:12174
because:12175
army:12176
asi:12179
arts:12180
ac:12181
pebrero:12182
hunyo:12183
telah:12184
mae:12185
havia:12186
families:12187
edward:12188
awards:12192
autres:12193
ingles:12194
primo:12195
aussi:12199
zeit:12201
lee:12202
novembre:12203
##ux:12204
didziulis:12205
unha:12206
##cy:12207
decock:12208
lors:12209
abucay:12210
control:12212
##cie:12213
named:12214
##bu:12217
far:12218
##ui:12220
bang:12221
trung:12222
africa:12223
bio:12225
match:12226
menjadi:12227
sy:12228
comuna:12229
mayo:12231
prix:12232
##ei:12233
dam:12235
xx:12237
services:12238
##lor:12239
liga:12240
##ano:12241
global:12242
onde:12243
sen:12244
mu:12245
desa:12248
id:12249
kom:12250
alexander:12251
##dan:12255
ils:12256
presidente:12257
angeles:12258
##ique:12259
poblacion:12260
building:12262
mayor:12263
did:12266
lugar:12267
tim:12268
##ker:12269
field:12270
##nak:12271
banda:12273
##ue:12274
names:12276
moi:12277
super:12278
reference:12279
carlos:12281
##tan:12282
ez:12283
tam:12284
seg:12285
bureau:12287
bukid:12288
plan:12289
word:12290
sto:12291
simon:12292
episode:12293
lai:12295
could:12296
tempo:12297
mort:12298
disyembre:12299
anna:12301
dla:12304
##ting:12305
col:12308
mountain:12309
vu:12310
##ato:12311
##ua:12312
ba:12314
education:12315
court:12317
fire:12319
built:12321
##ego:12323
##ques:12324
within:12325
cerambycidae:12326
egalement:12327
habitants:12328
##tar:12329
##ija:12332
segundo:12335
iki:12336
said:12338
##ls:12339
type:12340
despues:12342
essere:12343
drei:12344
##tta:12345
civil:12346
jedoch:12348
head:12349
theatre:12350
##we:12351
tubig:12352
##dir:12353
##liche:12354
position:12355
ket:12357
ordo:12358
francais:12359
##jos:12360
##zioni:12361
books:12363
partie:12364
chinh:12365
binon:12366
ela:12367
durant:12368
brasil:12369
lam:12370
##mann:12371
viene:12372
ich:12373
quoc:12374
barcelona:12375
##ville:12378
iran:12380
sea:12381
nhan:12383
took:12384
leta:12386
nature:12387
mentre:12388
lanaw:12390
segun:12391
siecle:12392
carl:12395
along:12396
coleoptera:12399
##ido:12400
latach:12401
volume:12403
friedrich:12404
department:12406
wahrend:12407
mary:12408
##su:12409
atlas:12410
deutschen:12411
oslo:12412
published:12414
adtong:12416
zo:12420
let:12421
diptera:12422
tren:12424
business:12425
million:12427
bad:12428
huvudsak:12429
habitantes:12431
mens:12433
pado:12434
##sch:12435
##jen:12436
etwa:12438
still:12440
blue:12442
beim:12443
joka:12444
human:12445
medyo:12446
brown:12447
santiago:12450
apan:12451
##sche:12454
mal:12456
council:12457
##burg:12458
##van:12459
planet:12460
members:12463
anh:12466
variansen:12467
denne:12468
questo:12469
gamay:12470
temps:12471
famili:12474
trois:12475
##rat:12478
##ane:12481
saluran:12483
orang:12484
car:12485
plant:12486
free:12487
epoca:12488
player:12489
##ang:12490
italiano:12491
tem:12492
community:12494
very:12495
##kin:12497
terletak:12499
federal:12501
teil:12502
nhat:12503
##nim:12504
puis:12505
dung:12507
mereka:12509
piano:12510
##ros:12511
hadde:12512
pel:12513
pop:12514
diakses:12517
costa:12518
##ico:12519
jones:12520
kuh:12522
nha:12523
segunda:12524
##ret:12525
jack:12526
own:12530
##ris:12531
otros:12532
dai:12533
tym:12534
green:12535
regional:12536
gan:12537
vers:12541
##ove:12547
how:12548
luis:12549
obra:12550
received:12552
pays:12553
dort:12554
ter:12555
todos:12556
sant:12558
byla:12559
##lichen:12560
loro:12562
zich:12564
ihre:12566
served:12567
bila:12569
##ao:12574
etc:12575
##ye:12577
metal:12578
frances:12579
mundo:12580
##pen:12582
nhu:12587
chicago:12588
studies:12589
again:12590
indian:12591
##use:12592
satu:12594
departement:12597
fou:12598
##dy:12599
mehr:12600
##jas:12601
texas:12602
sam:12603
fueron:12604
##gt:12605
heeft:12607
pmid:12608
airport:12610
##ima:12611
kann:12612
kam:12613
marco:12614
lat:12615
design:12617
hier:12618
marzo:12620
nas:12621
include:12622
sonra:12624
eu:12625
qua:12626
francia:12627
meer:12628
hien:12629
##ade:12633
amerika:12634
late:12635
led:12636
bank:12638
academy:12640
##ile:12642
fort:12643
##nas:12644
##ara:12645
nalazi:12646
##nym:12647
esis:12649
##ise:12650
important:12652
spater:12654
kelas:12655
espana:12657
bao:12658
periodo:12659
dall:12661
universitat:12663
##ari:12664
wieder:12665
tout:12666
##nek:12667
##rum:12668
albert:12669
those:12671
##ure:12672
sang:12673
tak:12674
stand:12675
died:12677
jej:12678
spring:12679
vart:12685
##tti:12686
tiene:12687
ktory:12689
##one:12691
todo:12692
magyar:12693
buvo:12695
make:12696
##ation:12697
antes:12698
website:12699
case:12700
##ino:12702
##nja:12704
##ity:12705
yr:12707
dette:12709
engleski:12710
taxonomic:12712
##nih:12714
williams:12718
##uk:12721
filum:12722
musical:12723
route:12724
##nej:12725
class:12728
port:12730
contre:12731
space:12732
haar:12733
asia:12734
although:12736
##leri:12737
sido:12738
municipio:12740
pristupljeno:12744
##ului:12745
##cji:12746
##ate:12748
##lin:12749
mis:12751
hotel:12752
lost:12754
annees:12755
walter:12758
argentina:12761
vier:12762
economic:12763
romania:12764
magazine:12765
arthropoda:12767
##sten:12768
premio:12772
minister:12774
dvd:12776
political:12777
##mer:12778
ti:12780
nueva:12782
##lis:12784
avant:12786
your:12787
body:12788
ottawa:12789
##sky:12790
arte:12791
round:12792
run:12793
lain:12796
ako:12798
citta:12801
##lig:12804
ara:12805
##issa:12807
sir:12810
ate:12811
cidade:12813
especie:12814
##ah:12815
##ver:12817
even:12818
points:12819
##ceae:12821
language:12823
thompson:12826
##ber:12827
face:12828
max:12829
heute:12830
sai:12831
##ele:12832
father:12833
wikipedia:12834
peut:12835
volta:12836
kun:12837
act:12838
jsou:12840
victoria:12841
koja:12842
icin:12845
villa:12846
israel:12847
eshte:12848
among:12849
different:12850
full:12851
marupokan:12852
tambe:12853
mr:12854
latin:12855
according:12856
johann:12857
jusqu:12858
##iert:12859
##ena:12863
ende:12865
windows:12866
importante:12867
tanggal:12869
##zu:12870
tenia:12872
right:12873
chung:12874
##ito:12875
article:12877
next:12878
seinen:12879
jaar:12882
##nom:12883
##ksi:12884
politica:12886
caso:12887
gold:12888
days:12889
title:12891
review:12893
##nti:12894
chu:12895
anys:12896
##nce:12897
monde:12898
##ive:12899
comune:12900
wilhelm:12901
##bol:12903
munisipyo:12904
##nis:12905
taas:12907
##og:12908
tva:12909
groupe:12910
distrito:12911
wo:12912
store:12913
twee:12915
werner:12919
fine:12922
equipe:12923
##sel:12924
terra:12925
seinem:12926
##aan:12927
dove:12928
kayu:12930
##ms:12932
iucn:12933
jak:12935
##inen:12936
election:12938
##ais:12940
bill:12941
##ys:12943
##ham:12947
military:12948
habia:12949
southern:12952
forces:12953
ju:12955
##per:12960
causa:12961
light:12963
guerre:12964
##coes:12965
##mas:12966
##ono:12967
northern:12968
australian:12971
short:12972
##ona:12973
bet:12976
much:12977
leon:12978
min:12979
agus:12980
##age:12981
collection:12982
once:12983
mount:12985
theo:12986
##vu:12987
internacional:12989
network:12990
tema:12992
lu:12993
tal:12995
included:12996
##wy:12997
tanto:12999
venne:13001
luc:13002
##sko:13004
jacques:13006
##ici:13007
ari:13008
html:13009
periode:13010
##sia:13011
dies:13015
support:13016
##pi:13017
fel:13019
suite:13020
titre:13021
##ore:13022
copa:13023
oster:13024
lasang:13025
##ras:13026
izan:13027
sunt:13029
##yn:13030
mindre:13033
grandes:13034
##vel:13038
course:13039
style:13040
mundial:13041
liegt:13042
cultural:13044
bereits:13046
aastal:13048
germany:13050
hy:13051
takze:13052
plaats:13053
level:13054
hay:13055
plusieurs:13056
nelle:13057
lokal:13059
official:13061
pedro:13062
sans:13063
scott:13064
##ds:13067
register:13068
##ium:13069
secondo:13071
fins:13073
portugal:13075
films:13076
##sse:13077
truong:13078
##net:13080
board:13082
tras:13083
dezember:13084
francois:13086
ilk:13087
kabupaten:13090
republica:13091
municipal:13092
often:13094
temporada:13095
departamento:13096
lieu:13097
zuen:13098
report:13100
##lia:13101
erste:13102
dann:13103
thoi:13105
quatre:13108
ray:13110
vice:13111
##ati:13112
movie:13113
date:13114
partido:13115
kanada:13116
juo:13118
histoire:13119
code:13121
storre:13122
adam:13124
parti:13125
bas:13126
konnte:13127
poder:13129
god:13131
##kt:13132
cual:13135
using:13136
summer:13138
puede:13139
presente:13140
alan:13143
works:13144
standard:13145
sport:13148
instituto:13149
eran:13150
nuoc:13152
joe:13153
construction:13154
students:13157
##let:13158
career:13159
vii:13160
songs:13161
sia:13162
marz:13164
described:13166
tersebut:13167
get:13168
period:13170
minor:13171
##ford:13172
front:13175
nuo:13176
scene:13177
action:13178
isang:13179
kabukiran:13180
##ide:13181
viet:13182
verlag:13184
race:13185
##tet:13186
vien:13190
wilson:13191
##ves:13193
##isch:13194
yo:13195
##het:13196
##ira:13198
zone:13199
ovat:13200
police:13202
##mus:13203
poi:13204
deel:13205
monte:13207
without:13208
##chi:13209
tro:13210
koje:13211
maj:13213
areas:13214
harry:13215
##uri:13216
##ges:13217
battle:13218
material:13220
deutsche:13221
ham:13222
vaxer:13224
##od:13227
##kom:13228
##ft:13230
eo:13231
meyer:13232
tipo:13237
sol:13238
pagkainila:13239
##fa:13240
sub:13241
##ring:13243
qe:13245
ultimo:13246
alto:13248
qual:13249
gemeente:13250
utan:13253
hilabihan:13254
##igen:13256
##rn:13260
##schen:13262
##ungen:13264
sulla:13266
ktora:13267
##iva:13268
avril:13270
thuong:13273
seka:13274
roi:13277
nakon:13278
miles:13281
##ani:13284
ihm:13285
columbia:13289
deutschland:13290
sempre:13292
trade:13293
labing:13294
xviii:13296
dien:13297
centrala:13298
library:13299
guide:13301
##bar:13303
campo:13304
beste:13305
##las:13306
bestar:13308
gant:13309
manuel:13310
kim:13311
##ong:13313
thong:13315
moved:13316
sitt:13318
##tos:13320
rang:13322
ktore:13325
cao:13326
ihr:13329
xvi:13330
otto:13331
nationale:13332
prince:13333
aquest:13335
##iem:13336
hvor:13337
##ens:13338
aquesta:13339
alta:13341
##ende:13342
similar:13344
vattendrag:13345
health:13347
##ala:13348
mare:13350
hoi:13352
ag:13353
kot:13355
##able:13356
nebula:13358
empire:13359
lord:13360
master:13361
never:13362
##eg:13363
jorden:13364
hop:13365
square:13366
##tic:13368
jackson:13369
selected:13370
etats:13371
tous:13372
##uje:13373
sports:13374
##ese:13375
##ser:13377
##ete:13378
php:13379
rei:13380
fino:13381
bol:13384
vita:13385
moze:13386
chinese:13387
fall:13388
iko:13390
hot:13392
padre:13394
geraadpleegd:13395
arthur:13396
management:13397
nara:13399
quebec:13401
lange:13405
allen:13406
##urs:13407
bar:13409
glesbefolkat:13410
afrika:13412
established:13415
kumbang:13418
file:13419
vaster:13421
##aren:13422
chile:13425
##ula:13426
selon:13428
came:13430
juin:13431
daha:13432
johnson:13433
autor:13434
nordvast:13436
##rie:13440
phat:13441
##tis:13442
ary:13443
narmaste:13444
chris:13446
integrated:13447
common:13449
despres:13452
vum:13454
hand:13455
status:13456
##sh:13457
jazz:13458
professional:13459
half:13460
ru:13462
stone:13463
gemeinde:13464
punta:13467
neu:13468
motor:13469
middle:13470
eesti:13471
nar:13473
##yi:13474
##ismo:13475
various:13477
##ps:13478
agua:13479
##rea:13480
##ede:13482
written:13485
dio:13487
fois:13488
mismo:13490
jesus:13491
##nan:13494
miejsce:13495
questa:13497
study:13498
jakarta:13500
mac:13501
anti:13502
marca:13506
maja:13508
##ht:13509
##nta:13510
tuong:13511
performance:13512
##ff:13513
anderen:13515
##ern:13517
##rna:13518
structure:13519
##eri:13521
##nza:13522
##ali:13523
page:13524
##ym:13525
forme:13529
track:13531
hospital:13532
fi:13533
circa:13534
vagy:13535
##tik:13537
michel:13540
##tra:13541
medal:13543
actor:13544
munchen:13545
tudi:13548
mutta:13549
valley:13550
primeiro:13552
janeiro:13553
##jan:13554
walog:13555
kuperad:13556
foram:13557
chien:13558
hang:13561
oficial:13562
ok:13563
##bus:13564
inc:13565
making:13566
girl:13568
papa:13569
famille:13570
ana:13571
fler:13572
etat:13573
produced:13574
haben:13576
nouvelle:13577
mike:13578
vil:13579
canal:13580
##ster:13581
platz:13582
vie:13583
##po:13584
paulo:13585
samhalle:13586
##ket:13587
sve:13589
##los:13592
liste:13593
having:13594
metres:13595
kirche:13596
eastern:13598
dag:13599
##ika:13600
drama:13601
giovanni:13603
dins:13604
##dd:13605
norr:13608
wikimedia:13609
##ix:13611
heinrich:13612
given:13613
##cija:13614
tussen:13615
cross:13616
married:13617
lebih:13619
ultima:13620
teams:13621
seperti:13622
living:13623
##field:13624
junto:13625
philip:13626
together:13627
##cs:13628
steve:13629
sun:13630
alt:13631
elso:13632
ktery:13635
kapunawpunawan:13637
bob:13638
##tat:13640
##ac:13641
virginia:13642
taylor:13643
jos:13644
heart:13645
##sis:13647
##eni:13649
##ag:13650
policy:13651
varios:13652
muy:13653
sadana:13654
##ez:13655
memiliki:13656
aj:13657
##ey:13658
altri:13659
morte:13660
went:13661
##hu:13662
primeira:13664
cinema:13665
every:13667
programa:13668
xi:13669
started:13670
yra:13671
dapat:13673
forst:13674
queen:13675
canh:13677
superficie:13679
##rin:13680
stata:13681
annee:13682
bahasa:13683
regione:13684
toi:13685
militar:13686
nordost:13687
mesmo:13688
islam:13689
vai:13690
anne:13691
##nost:13693
syahan:13695
google:13696
inwoners:13697
nhieu:13699
binh:13700
loi:13701
futbol:13702
jamfort:13703
##nos:13704
become:13706
nebo:13707
weer:13708
ganska:13710
ovanligt:13711
nama:13712
teatro:13713
minh:13718
signifikant:13719
committee:13720
##vy:13722
sky:13724
poblacio:13725
russian:13726
akan:13727
dabei:13728
##line:13731
victor:13732
forekomst:13733
ep:13734
##ami:13736
tao:13738
russell:13739
stad:13740
sei:13741
private:13742
quale:13745
##gar:13746
jim:13748
color:13749
altres:13750
champion:13752
uefa:13753
florida:13754
##ios:13755
rose:13756
extension:13757
jane:13758
##rte:13759
konnen:13761
camp:13763
ort:13765
release:13766
lub:13767
stati:13768
corps:13769
ktere:13770
billboard:13771
publishing:13772
janvier:13774
bac:13775
siglo:13776
##heid:13778
change:13780
dance:13781
marc:13782
oscar:13783
##nosti:13784
nin:13785
institut:13786
avait:13787
ihrer:13788
toppen:13789
railway:13790
nen:13791
away:13795
sera:13796
##iste:13797
##tia:13798
kepada:13799
technology:13800
source:13801
tran:13802
damit:13803
universidad:13804
republic:13805
societe:13806
seven:13809
avoir:13810
##mis:13811
communes:13813
cultura:13814
##ntes:13815
##ld:13816
uso:13817
roger:13818
ouest:13819
ft:13820
fer:13822
##ncia:13823
septembre:13826
octobre:13827
##nika:13828
quien:13829
cerca:13830
comte:13832
##cos:13833
##gang:13834
sos:13836
omradet:13837
pulo:13839
complete:13840
modo:13842
lap:13843
dictionary:13844
ohio:13846
pape:13847
origine:13848
gov:13849
marso:13851
##ale:13852
bez:13853
junior:13854
##cja:13856
suas:13857
ima:13860
wien:13862
zituzten:13863
salah:13864
polski:13865
ss:13866
##tie:13867
lead:13868
historical:13869
nouveau:13870
##fe:13871
chef:13872
kota:13874
encuentra:13876
henri:13878
entertainment:13880
hanh:13881
frantsesez:13882
viii:13883
abinon:13886
katika:13889
jawa:13890
eric:13892
euro:13893
##ela:13894
term:13896
##ell:13897
equipo:13898
storsta:13899
lag:13900
francaise:13903
bil:13904
section:13905
mellom:13906
mother:13907
##osa:13909
cast:13910
##isme:13911
##rne:13912
pres:13913
canton:13914
##ciones:13915
tay:13918
buenos:13920
##mes:13921
mine:13922
##ingen:13923
julio:13924
##tz:13925
poco:13929
samt:13930
neue:13931
commission:13932
##ss:13934
lady:13935
mieu:13938
persones:13939
fifa:13940
peru:13942
cas:13945
systems:13946
##nn:13947
##rar:13949
ihn:13950
suoi:13953
##ard:13956
autre:13959
ging:13960
armee:13961
anu:13962
cruz:13963
double:13965
malaysia:13966
ass:13967
dy:13968
etta:13969
unit:13971
lietuvos:13973
plu:13974
nuevo:13976
foundation:13978
created:13979
today:13980
alfred:13981
start:13982
few:13983
maart:13984
chief:13986
spisak:13990
ainda:13991
syn:13993
dua:13994
unis:13995
##hen:13996
win:13997
aires:13998
aos:13999
##mos:14000
hong:14001
regiment:14002
beiden:14004
zuten:14005
boston:14006
aven:14007
our:14008
staat:14009
franz:14011
stage:14012
##tel:14013
lewis:14015
phu:14016
ol:14017
##ille:14018
amihang:14019
software:14020
kong:14021
jahrhundert:14022
ella:14023
fast:14024
mario:14025
robinson:14026
huvudsakligen:14027
african:14028
##lta:14029
##ose:14031
francis:14032
regionen:14033
sede:14034
korea:14035
kasagaran:14037
##jon:14038
bajo:14039
juillet:14040
range:14041
##ding:14043
contro:14044
##cha:14046
ademas:14047
here:14048
eit:14049
woman:14050
conference:14051
dakbayan:14053
septiyembre:14054
pendant:14055
tony:14057
phap:14058
text:14059
territorio:14060
pho:14061
tong:14062
pola:14064
zweiten:14065
##nego:14066
##owa:14067
moment:14068
soder:14069
transport:14070
przy:14072
eglise:14073
##skiego:14074
mange:14075
klub:14076
katalog:14077
kwa:14078
nije:14080
##ism:14081
baldoti:14082
lifayelas:14083
test:14084
russia:14085
##ties:14086
independent:14087
guitar:14088
campeonato:14091
##ella:14093
##ging:14094
##dt:14095
biography:14097
regie:14098
aunque:14099
##illa:14101
momento:14102
##ados:14103
hit:14105
vir:14106
eren:14109
decembre:14110
hanno:14111
##cus:14112
ua:14114
francesco:14115
ora:14116
##cke:14118
##iti:14119
miguel:14120
announced:14121
ford:14122
ada:14123
nobiyembre:14125
sound:14127
##rer:14129
negara:14130
wife:14131
seorang:14132
nazionale:14134
##tura:14135
dende:14136
##cije:14138
##zie:14139
boy:14140
return:14142
etxek:14143
channel:14145
interior:14146
kde:14147
working:14149
person:14150
founded:14153
cau:14154
upon:14156
jednak:14158
##ram:14160
pere:14161
amsterdam:14162
##nog:14163
hau:14164
austria:14165
tang:14167
duke:14170
##iro:14172
val:14173
islands:14174
leader:14176
gang:14177
polo:14179
skulle:14180
manera:14181
sama:14182
cours:14183
cote:14185
tako:14188
namen:14190
johannes:14191
zealand:14192
titel:14193
further:14194
tiempo:14195
xiii:14196
commons:14197
estat:14198
amor:14199
##ous:14200
japanese:14201
rowniez:14204
##elle:14205
stesso:14206
pertama:14207
##rus:14208
golden:14209
ere:14210
##iv:14211
mans:14213
##ett:14214
consultau:14215
worked:14217
weitere:14218
naselju:14219
bere:14220
britannica:14221
##ava:14223
thai:14224
event:14225
universal:14226
especies:14227
vs:14228
patrick:14229
wrote:14230
evolution:14231
##llo:14232
phong:14233
##lli:14234
stephen:14235
revolution:14236
aout:14238
recorded:14239
khac:14240
bola:14241
gen:14242
politico:14243
nguyen:14244
xvii:14245
lista:14247
italiana:14250
ann:14251
oro:14252
personal:14253
joined:14254
barat:14255
##cher:14258
wales:14260
##zia:14261
competition:14262
##cje:14263
aircraft:14264
ji:14265
baldotu:14267
nations:14268
##zer:14269
seria:14270
##idad:14271
dello:14272
yon:14273
daerah:14274
tarde:14275
georg:14276
xiv:14277
##tive:14279
dead:14281
actual:14284
octubre:14285
carolina:14286
##nus:14287
santo:14288
gibt:14289
canadian:14291
deutscher:14292
viec:14294
##niu:14295
diesem:14296
sendo:14297
low:14298
future:14299
novel:14301
##dia:14302
waar:14303
linea:14305
wilayah:14306
hem:14308
notamment:14311
possible:14312
vsak:14315
garcia:14316
units:14317
lei:14318
brian:14319
omkring:14320
pred:14323
##est:14324
though:14325
##ili:14326
erhielt:14327
hymenoptera:14328
sent:14329
petit:14330
superior:14331
kozott:14333
medical:14336
ant:14337
machine:14338
##kat:14339
##rol:14340
dessen:14341
consultado:14342
miss:14344
arten:14345
dias:14347
geschichte:14348
homes:14349
active:14351
neben:14352
gruppo:14353
##acion:14354
generale:14355
put:14356
##ses:14357
training:14358
andrew:14360
sydost:14364
classe:14365
##ola:14367
xii:14368
operation:14370
##nica:14371
filme:14373
giao:14374
grad:14375
returned:14376
catalog:14377
fernando:14379
pot:14381
mon:14382
##ora:14383
##een:14384
current:14385
platt:14386
zusammen:14387
xv:14388
##ons:14389
##nou:14391
sv:14392
angel:14394
ulohang:14395
pode:14396
others:14399
sekolah:14400
ludwig:14401
musik:14403
molto:14407
##haus:14408
dc:14410
##ih:14412
##una:14413
outros:14414
lien:14415
##eur:14417
alguns:14419
disco:14420
porto:14421
rights:14423
##ente:14425
encore:14426
ayisyen:14429
creation:14430
faire:14431
tant:14432
##yo:14433
##oi:14435
systema:14436
sydvast:14437
enpresak:14438
corporation:14439
ecole:14441
format:14442
empresa:14443
ly:14444
male:14447
rome:14448
siendo:14449
londres:14450
leurs:14451
regio:14454
giai:14456
inn:14458
##lui:14459
##ich:14461
bridge:14462
week:14463
besar:14465
fylke:14466
paises:14467
##fer:14468
revista:14469
dark:14471
depois:14472
ensemble:14474
geographical:14475
inte:14476
kad:14477
eng:14478
##wood:14481
punkt:14482
meksiku:14483
estos:14486
##via:14487
medio:14488
elected:14489
chiesa:14490
ix:14491
branch:14492
aveva:14493
visini:14495
kas:14496
peu:14497
bylo:14498
##tre:14499
##ando:14501
primary:14502
##ori:14503
elizabeth:14505
apos:14506
gmina:14507
masa:14510
hanen:14511
eus:14512
huyen:14514
davis:14515
institution:14516
##lus:14517
dentro:14518
##ay:14519
gas:14524
oko:14526
growth:14529
fox:14530
kanssa:14534
##op:14535
sinh:14536
len:14537
gab:14538
ordre:14539
https:14540
erano:14541
coast:14542
rat:14543
flere:14544
dva:14545
##feld:14546
##gh:14547
stars:14548
mitglied:14550
gol:14551
secolo:14552
considered:14553
altre:14556
genre:14557
continued:14559
jersey:14563
ente:14564
puerto:14567
secara:14568
hett:14571
ese:14572
stagione:14573
##skim:14574
beach:14575
example:14577
hade:14578
titulo:14580
mint:14581
seguito:14582
celui:14584
grace:14586
##ngen:14587
homme:14591
temple:14592
##tek:14593
menos:14594
norsk:14595
tez:14596
pacific:14599
colombia:14603
##dad:14605
estaven:14606
ek:14607
timur:14609
kommunen:14610
entry:14611
veel:14612
elements:14613
principale:14614
kang:14615
opened:14616
mondiale:14617
pan:14618
tokyo:14620
##lio:14621
##isk:14623
disse:14626
##jac:14627
sad:14628
episodio:14629
##don:14632
##ila:14633
##ivo:14635
bass:14637
##bb:14638
##set:14639
luong:14640
wolfgang:14641
prime:14642
ise:14643
posto:14645
wild:14647
tieng:14648
must:14650
idea:14653
cosi:14654
tweede:14655
zivelo:14656
claude:14657
nadmorskoj:14659
beberapa:14660
##asi:14661
zituen:14662
##ciu:14663
too:14666
ona:14667
segle:14671
##tica:14672
tutti:14674
ligne:14675
theory:14676
artist:14677
podczas:14678
vista:14681
espanol:14682
available:14685
##iques:14686
francesa:14687
##bach:14689
winter:14690
phai:14692
should:14693
stanovnistva:14695
brother:14697
note:14698
publication:14699
maior:14700
##met:14701
otras:14702
kui:14704
sehr:14705
##ota:14706
issue:14709
jedna:14711
result:14712
boi:14714
##dur:14716
internationale:14717
tego:14718
miller:14719
roy:14721
##mia:14722
lalek:14724
kecamatan:14726
mil:14727
senior:14728
##lse:14729
genero:14730
tuvo:14731
kaominina:14732
kod:14733
playing:14734
estan:14735
situe:14737
bot:14739
gobierno:14740
##hus:14741
##kim:14742
help:14743
wide:14744
fishbase:14745
moins:14747
navy:14748
ernst:14749
##ral:14750
formula:14751
zunachst:14752
carlo:14753
fils:14754
editions:14755
chart:14757
key:14758
blues:14759
ton:14762
child:14763
bernard:14765
sjo:14766
##uta:14768
rey:14770
tina:14772
sale:14773
enrique:14775
fevrier:14777
administration:14778
tieu:14779
libro:14780
##tal:14782
##rono:14784
chateau:14785
soit:14787
negeri:14788
cuenta:14789
sat:14790
dog:14791
cet:14794
##kou:14795
hacia:14796
hockey:14798
##her:14801
##san:14802
##tak:14803
kontinente:14804
wenn:14805
##lige:14807
##if:14808
sydney:14809
##fi:14810
publico:14812
varias:14816
joylashgan:14817
susan:14818
keine:14819
dupa:14820
direction:14821
estaba:14822
hag:14823
##pan:14824
iku:14825
lepidoptera:14826
energy:14828
factbook:14829
computer:14831
stadium:14832
sex:14833
yw:14834
##itat:14835
players:14837
mesto:14838
##vano:14839
pol:14841
schools:14842
bekannt:14844
daughter:14846
coach:14847
princeton:14848
##eren:14849
originally:14852
pr:14853
reino:14855
##ness:14856
tatbefolkat:14858
nivel:14859
##heim:14860
dipterorum:14861
mid:14862
museo:14866
limited:14868
girls:14869
mientras:14871
sons:14874
bilo:14878
ch:14879
alex:14880
todas:14881
jalkeen:14882
himself:14885
ku:14886
bruce:14887
##nts:14888
appeared:14889
##ero:14890
zuruck:14892
does:14893
justice:14894
khan:14896
pakistan:14897
formed:14899
##dores:14901
box:14902
nang:14903
budapest:14905
developed:14906
fe:14908
rosa:14909
cinco:14910
mere:14911
##rde:14913
vuoden:14914
pennsylvania:14915
yari:14917
ball:14918
##ement:14920
currently:14924
provinsi:14925
auto:14929
stockholm:14930
vung:14931
##owe:14932
thay:14933
organization:14935
process:14936
places:14937
##owy:14938
ireland:14939
grup:14940
##eta:14942
theater:14943
furono:14944
spanish:14945
regions:14946
contemporary:14948
alcuni:14951
##nar:14952
csak:14953
tard:14955
novo:14956
bell:14957
forest:14958
diego:14959
donne:14960
spider:14962
kaumahan:14963
manager:14964
sm:14965
mest:14966
celle:14968
chan:14969
georgia:14972
township:14973
##erte:14974
across:14975
delstaten:14977
deren:14978
elles:14979
boys:14980
dois:14981
rural:14982
decada:14983
labon:14984
##ean:14985
gordon:14988
character:14989
stor:14990
##ije:14992
##get:14993
quelques:14994
kako:14995
lett:14996
##ias:14997
bade:14998
addition:15000
hollywood:15001
##ae:15002
orden:15003
dago:15004
sverige:15005
categoria:15006
##hin:15008
yer:15009
joan:15010
embargo:15011
##oni:15012
zif:15013
custodian:15015
noruwega:15016
events:15017
##ult:15018
aby:15020
minutes:15021
samuel:15022
anhianhi:15023
ohne:15025
kali:15026
negli:15027
milano:15031
money:15033
##ments:15034
blir:15035
bai:15038
industry:15039
cuatro:15040
normal:15041
nagy:15042
signed:15045
ihren:15047
cat:15048
lon:15049
tap:15050
sohn:15053
sue:15054
student:15055
recensement:15057
magnoliopsida:15059
nicolas:15060
andra:15061
traves:15062
garden:15064
ialah:15065
##oa:15066
##sion:15067
molupyo:15068
ivan:15069
##werk:15070
nafar:15071
mycket:15073
##aja:15077
ger:15079
notes:15080
universite:15081
illinois:15082
schon:15083
tamien:15085
leben:15086
banyak:15087
samo:15088
castle:15090
obec:15093
editor:15094
less:15095
albums:15096
douglas:15098
orchestra:15099
ante:15100
##ces:15101
aholi:15103
obras:15105
##ct:15106
##hl:15107
fase:15108
diverse:15109
##cka:15110
##tto:15111
formation:15112
appointed:15114
anthony:15115
prvni:15116
esa:15117
ebenfalls:15119
tale:15120
drzavi:15121
patedik:15122
werk:15123
obefolkad:15124
doctor:15125
cause:15126
singles:15127
mod:15128
exemple:15129
close:15130
hemiboreal:15131
plaza:15133
##wan:15134
##kel:15135
historic:15137
byen:15138
##kow:15139
pelicula:15141
##rak:15142
silver:15143
lower:15145
bija:15146
industrial:15149
tho:15151
basis:15152
gruppe:15153
prvi:15156
rue:15157
##sto:15160
dom:15161
dna:15162
movement:15164
laut:15165
honor:15166
coupe:15167
ibn:15169
bahwa:15170
governo:15172
sta:15173
puo:15174
cum:15175
ancient:15176
gradova:15177
sense:15178
devient:15179
personas:15182
seconda:15183
daily:15185
orthoptera:15189
topon:15191
popis:15194
esto:15195
ltd:15198
market:15200
##vas:15201
quella:15205
setelah:15206
attack:15207
anderson:15208
videtu:15213
lunetu:15215
moderne:15216
zm:15217
hinh:15218
xuat:15219
##bile:15220
dieses:15221
##erd:15222
iso:15224
food:15225
taken:15227
##menti:15228
federation:15229
vise:15230
unica:15231
##kas:15232
politique:15235
##aria:15237
foreign:15238
self:15239
pertsona:15240
wieku:15244
##gas:15246
antara:15247
debido:15251
nba:15252
majd:15253
chuyen:15254
principe:15255
champions:15256
captain:15257
disney:15258
gun:15260
##owych:15262
pages:15264
donc:15265
##nto:15266
##eti:15267
kawasan:15268
neuen:15272
storia:15273
roberto:15274
georges:15275
particular:15278
talet:15280
cara:15281
hard:15282
campionato:15283
enw:15284
decide:15285
ani:15287
sine:15289
khu:15290
object:15292
mondo:15293
features:15297
municipality:15298
seen:15299
mezi:15301
ktera:15304
##ningen:15305
mix:15306
decision:15308
religion:15309
situada:15311
kommun:15313
operations:15315
ground:15316
lingua:15317
##nal:15318
peak:15320
eight:15321
estas:15323
rugby:15326
mann:15327
ole:15328
komt:15330
memorial:15331
hamburg:15332
##zio:15333
remix:15335
vascular:15336
bzw:15337
edo:15338
havde:15339
erst:15341
diversos:15344
senere:15346
proprio:15347
leipzig:15349
ancora:15350
befindet:15351
tich:15352
allem:15353
ontario:15354
massachusetts:15355
howard:15356
##art:15358
nich:15361
parts:15364
##ott:15366
paso:15367
karena:15368
walker:15369
pueden:15370
##isi:15372
tournament:15373
geen:15376
vocals:15377
milan:15378
terme:15379
organisation:15381
otra:15382
##din:15383
fodd:15384
##sc:15385
microsoft:15386
##nden:15387
##vis:15389
##min:15390
michigan:15391
##tur:15392
prize:15393
##bel:15398
##bia:15399
romana:15401
leo:15402
kilometers:15403
torre:15404
ver:15405
gar:15406
franca:15407
duas:15408
throughout:15410
principalmente:15411
lifayels:15413
toda:15414
need:15415
saat:15416
aver:15417
kommune:15418
einige:15419
kilometres:15423
tengah:15424
proceni:15425
barbara:15426
tae:15429
regular:15430
tid:15431
lima:15432
##dal:15433
sold:15434
porte:15435
##way:15437
tijdens:15439
##led:15440
conservation:15443
dj:15444
opp:15445
##up:15446
franco:15447
grote:15448
cuoc:15449
ins:15450
madre:15452
concise:15453
moon:15454
unico:15455
tierra:15456
anak:15457
##heit:15458
##lari:15459
##skiej:15461
blood:15465
jeden:15467
groups:15468
bon:15469
##less:15470
cach:15471
arab:15472
fm:15473
largest:15474
dir:15475
urban:15476
carrera:15477
gdzie:15478
tag:15481
surface:15482
deur:15485
performed:15487
soviet:15488
arena:15489
##iin:15493
gave:15494
porta:15496
oriental:15498
situee:15499
sammen:15502
shows:15503
train:15505
phia:15507
beide:15508
wegen:15509
oa:15510
simple:15511
luego:15512
##ante:15514
directed:15516
got:15517
##liga:15519
oblast:15520
bin:15521
sistem:15522
cargo:15524
deep:15526
norra:15527
venezuela:15528
valle:15529
projektu:15532
edicion:15534
moore:15535
kemudian:15537
##zne:15540
includes:15541
secret:15542
letech:15543
individual:15544
tat:15545
semi:15546
ob:15547
algunos:15548
##sie:15549
christopher:15550
hal:15551
presenta:15552
fick:15554
papel:15555
bronze:15556
frankfurt:15557
analysis:15559
dira:15562
synonymic:15564
female:15565
##bas:15566
nato:15568
results:15569
tham:15571
manchester:15572
oktubre:15573
##maan:15574
trinh:15577
forsta:15578
fourth:15580
selbst:15581
frente:15582
view:15584
mexican:15585
##bles:15586
vila:15587
cinq:15588
catherine:15590
famiglia:15591
survey:15592
label:15593
coppa:15595
engineering:15597
norman:15600
singer:15601
##mar:15602
catholic:15606
toronto:15607
pat:15608
defense:15610
rok:15611
countries:15612
estudio:15613
centrale:15615
zbog:15616
##aa:15618
klimatzonen:15619
telepules:15621
brothers:15623
greek:15629
##tore:15630
##zas:15631
lot:15632
##my:15634
charge:15635
security:15636
##sson:15638
problem:15640
membre:15643
above:15645
trouve:15646
##ute:15647
designed:15648
quindi:15650
begin:15651
##any:15652
saveznoj:15655
apenas:15656
##jes:15661
gabriel:15662
abinons:15663
nove:15664
youtube:15665
regiao:15666
julius:15667
stanley:15669
sotto:15670
teoria:15671
kevin:15672
langau:15676
reserve:15679
biet:15680
##leg:15682
quello:15683
ciutat:15684
cai:15685
ring:15687
mau:15688
sedan:15690
nachdem:15691
producer:15692
##kar:15694
ran:15695
harper:15697
behind:15699
##aire:15705
adunay:15706
basa:15707
tol:15708
kunne:15712
##red:15713
##jat:15714
officer:15715
elections:15716
augustus:15717
maggio:15718
baby:15719
cia:15720
publica:15722
lopez:15723
size:15724
statt:15725
begann:15728
legal:15730
levy:15731
##ec:15732
##tum:15733
##taan:15735
lane:15736
despite:15738
##car:15740
chua:15741
haute:15744
verso:15745
##mat:15747
sydostra:15748
##rsi:15749
dunia:15751
determinado:15752
philippe:15753
mesta:15754
zij:15755
ucun:15756
nuovo:15757
##xa:15760
##zh:15763
bekend:15764
ever:15765
ap:15768
musique:15770
tegen:15771
pels:15772
arrondissement:15773
gioi:15775
sri:15776
altra:15777
months:15781
##tzen:15784
cele:15785
##nice:15788
vec:15792
vanaf:15793
##tin:15794
quanto:15796
complex:15798
eventually:15800
checklists:15801
##dar:15802
##ides:15803
marina:15804
weg:15809
call:15810
##lag:15811
wall:15813
istanbul:15814
imperial:15815
gora:15816
##oja:15817
diferentes:15819
maurice:15823
valencia:15827
nation:15828
titan:15829
burton:15830
sierra:15831
##ins:15832
leading:15833
drive:15834
##ful:15836
ogni:15838
clark:15839
lado:15841
taun:15842
nummer:15843
##oon:15845
siden:15846
killed:15847
finland:15848
mind:15849
sultan:15851
##gia:15852
##wi:15853
##ans:15855
settembre:15856
trabajo:15858
##and:15859
quali:15862
mise:15863
sala:15865
##yan:15866
panjang:15867
tidligere:15868
##nne:15869
statunitense:15870
cel:15871
macmillan:15872
gennaio:15873
selatan:15876
gary:15877
fram:15878
##det:15879
animal:15883
##isen:15884
oltre:15885
ditu:15886
senza:15887
kleine:15889
lawrence:15890
campaign:15891
##tique:15892
##stein:15893
titolo:15895
##owej:15896
klasse:15897
##acao:15898
ieu:15900
existe:15901
kanton:15902
##pt:15903
past:15904
uns:15905
##aza:15906
concert:15907
sites:15909
termine:15910
prin:15911
raja:15913
johnny:15914
asteroide:15915
hoang:15916
##asa:15917
room:15918
seculo:15919
truoc:15920
generation:15921
wood:15922
ferdinand:15924
irish:15925
ice:15926
staff:15929
##iya:15930
sp:15931
hebben:15933
stefan:15934
##zna:15935
grant:15938
cola:15939
##stan:15940
rest:15941
introduction:15942
rene:15943
septiembre:15944
aprile:15946
##az:15948
bagi:15949
baru:15950
forte:15951
bus:15952
bishop:15954
finalmente:15955
dalle:15956
racing:15957
heavy:15958
aantal:15960
upper:15961
anterior:15962
ak:15963
command:15964
kr:15966
chez:15967
oeste:15968
pak:15969
trat:15972
geslacht:15973
suomen:15975
usually:15976
##yon:15978
##ient:15979
giugno:15980
matoari:15981
##rade:15982
isla:15983
condado:15984
nelson:15985
ned:15986
anton:15987
electric:15988
##vos:15989
yeni:15991
digunakan:15992
##zar:15993
paper:15994
##king:15995
##lon:15997
##cki:15998
philadelphia:16001
##skog:16002
inoltre:16004
anderem:16006
drie:16008
direct:16009
##zza:16010
gay:16013
johan:16014
hitler:16015
##zes:16016
congress:16017
bull:16019
thus:16021
##uma:16022
higher:16027
featured:16029
nieuwe:16030
followed:16031
native:16032
junio:16033
moscow:16034
hann:16035
utara:16036
studios:16037
related:16038
cox:16039
##vin:16040
immer:16042
##bre:16043
kanal:16044
hermann:16045
giuseppe:16047
censo:16048
loire:16049
##bes:16051
completed:16052
##ping:16053
##gio:16055
ngadto:16056
alpes:16057
kent:16058
hamilton:16060
express:16061
denen:16062
firma:16063
josef:16064
energia:16065
kaayo:16067
##zenie:16069
directory:16070
ul:16072
kelly:16073
unos:16074
##oma:16075
##endo:16076
unesco:16077
abu:16079
abc:16081
##taa:16083
graf:16084
##kent:16086
norge:16087
beliau:16090
muller:16091
colorado:16092
stycznia:16093
clubs:16094
##var:16096
tobb:16097
##logia:16099
##rit:16100
highway:16101
desember:16102
reste:16103
stal:16104
bod:16105
swiata:16107
montreal:16109
goal:16110
##uti:16111
##ires:16113
zou:16114
nou:16115
##vet:16116
image:16117
give:16118
friends:16119
vietnam:16120
dream:16121
telt:16125
biztanle:16126
etant:16127
sodra:16128
ancien:16131
##gel:16132
##skih:16133
alberto:16134
championships:16135
##ovi:16136
##lat:16137
contract:16138
##sku:16139
permet:16140
dernier:16143
torneo:16144
##kych:16145
foar:16146
eau:16147
marcus:16148
##ierte:16149
persona:16150
hos:16152
guy:16153
##fen:16154
writing:16155
##hr:16158
fiction:16159
chuc:16161
maison:16162
##tico:16164
##sin:16165
importantes:16166
gdje:16167
otro:16168
riktning:16169
gunung:16170
asli:16171
espanola:16172
##iga:16173
assembly:16174
speed:16175
gallery:16176
##ades:16177
epoque:16178
author:16179
##eli:16180
niveau:16182
ottobre:16183
##usi:16184
kinadak:16185
##sus:16187
ellos:16188
gene:16189
naval:16191
cok:16193
##enia:16194
projekt:16196
better:16197
jahrhunderts:16198
lenghe:16199
luglio:16200
chau:16202
##ette:16203
##ats:16204
tac:16207
instead:16209
tej:16210
soon:16211
billy:16214
##ait:16215
hugo:16216
sungai:16217
inicio:16219
##uar:16220
italien:16221
true:16222
##nici:16223
pare:16226
ship:16227
iron:16228
commercial:16229
rus:16230
voice:16232
##iz:16234
profesor:16235
gruppen:16237
primordial:16238
kadar:16239
frantziako:16240
baden:16241
pedig:16242
largo:16243
##nich:16244
allerdings:16245
daripada:16246
combat:16247
finished:16248
byly:16249
ain:16250
reported:16251
andrea:16252
##ttiin:16253
ami:16255
oil:16256
##miento:16257
dave:16260
indiana:16261
szerint:16262
academia:16263
##dorf:16266
politik:16269
corpo:16270
degree:16272
lokala:16275
missouri:16276
experience:16277
##ama:16281
molt:16285
rol:16287
saw:16289
##lly:16290
stop:16292
membres:16294
nahm:16295
certain:16296
hills:16297
spielte:16299
##ture:16302
nobel:16303
edificio:16304
ian:16305
stat:16307
ata:16309
dicembre:16310
gian:16311
##erne:16313
executive:16314
amt:16315
bau:16316
trang:16317
erstmals:16319
platsen:16320
funf:16321
alice:16323
awarded:16324
porque:16326
zde:16327
least:16331
know:16332
atas:16333
folk:16334
muito:16335
fikk:16338
succes:16339
##mon:16340
either:16342
minnesota:16344
tika:16345
britain:16347
terre:16348
##well:16349
associated:16350
stuttgart:16351
remained:16353
mode:16354
inter:16355
wcsp:16356
##cne:16357
##nder:16358
strong:16359
pl:16360
stoleti:16361
##ries:16362
topographic:16363
daar:16364
publications:16367
able:16368
americano:16369
dazu:16370
ala:16371
##esi:16372
championnat:16375
kimi:16376
##mit:16378
cases:16379
##elt:16380
##nju:16381
francese:16382
##ev:16383
tau:16387
discovery:16388
deuxieme:16389
belodanis:16390
interno:16391
##cni:16394
planta:16395
##adas:16397
almost:16398
ocean:16399
orde:16401
gore:16402
mont:16403
bili:16404
jordan:16405
jonka:16406
pc:16408
diciembre:16409
##sed:16410
##ania:16413
##xe:16414
siege:16415
##bau:16416
##cas:16417
##tions:16418
hab:16419
winning:16420
muerte:16422
nederland:16423
libre:16425
fred:16426
sc:16427
biasonyo:16428
editors:16430
specie:16431
youth:16433
spain:16434
felix:16437
posteriormente:16439
mejor:16440
scientific:16441
obyvatelov:16442
monument:16443
gom:16444
##zeit:16445
stories:16446
sebastian:16447
##bert:16448
beginning:16449
##mal:16450
nine:16451
schloss:16453
contour:16455
statistics:16456
##ues:16457
estava:16458
esas:16460
profile:16461
osob:16462
nick:16463
bit:16464
##iche:16465
groot:16467
goi:16468
documents:16469
##eu:16470
sr:16471
##wie:16472
hold:16473
noviembre:16474
##tori:16475
tracks:16477
alte:16482
musee:16483
running:16484
baron:16485
access:16488
hogst:16489
drugi:16491
sina:16494
jorge:16495
say:16497
##mt:16499
oma:16500
threatened:16501
hojddata:16502
flora:16503
hari:16504
ea:16506
vincent:16507
##bra:16508
pont:16509
casi:16510
medicine:16512
gewann:16514
liberal:16515
traditional:16516
etapa:16517
##rad:16518
adolf:16519
##zenia:16522
entonces:16523
##ab:16524
escola:16525
added:16526
##amento:16528
literature:16533
peace:16534
republik:16536
genom:16537
rudolf:16538
kind:16540
##oli:16541
marinespecies:16542
##ggio:16543
mississippi:16545
libraries:16546
##usa:16549
gjennom:16550
##ish:16551
jeung:16552
hatten:16553
nederlandse:16554
mois:16555
bois:16556
livre:16557
governor:16560
ensuite:16561
##iden:16562
jour:16563
tennis:16564
distribution:16565
yu:16566
involved:16568
buyuk:16569
rather:16571
sherman:16572
kraju:16573
influence:16575
congo:16576
archive:16579
mang:16580
turn:16582
sino:16583
toen:16585
##uz:16586
soul:16587
romano:16588
artists:16589
syns:16590
svoje:16591
tamen:16594
find:16595
quattro:16598
##fall:16599
samme:16600
jimmy:16602
geografia:16604
##eo:16605
cancer:16606
waard:16608
##atu:16611
want:16612
atlantic:16613
italie:16614
##igt:16618
paghatag:16619
gilapdon:16622
cha:16623
naglibot:16624
tiilan:16625
topograpikong:16626
tereyn:16627
echter:16628
##idade:16629
bruno:16630
##ischer:16631
engine:16632
##skeho:16634
##dio:16636
wel:16637
sit:16639
sainte:16640
agent:16642
##rse:16643
element:16644
hui:16645
grupos:16647
meta:16650
campus:16652
roll:16653
##vad:16654
##stvo:16656
tower:16657
compte:16659
menschen:16660
quyen:16663
##oval:16664
anime:16665
phuong:16666
##sy:16667
##vne:16668
pozniej:16669
proti:16671
segons:16672
wadi:16673
charlie:16674
bland:16675
##gs:16677
adalwyd:16678
##iske:16680
renaissance:16682
wang:16683
bach:16684
##tiva:16689
godina:16690
insieme:16691
baker:16692
cine:16697
fauna:16698
##sio:16699
mukaan:16701
dana:16703
kalapukan:16704
interview:16705
avenue:16706
kiradi:16707
seis:16709
practice:16710
chaque:16711
##schaft:16712
verde:16716
kinh:16717
ito:16719
horisonten:16721
basketball:16722
success:16723
fame:16724
vastra:16725
writer:16726
conseil:16727
tempat:16728
logo:16729
tin:16732
##stand:16734
wing:16735
nomme:16736
benjamin:16737
helsinki:16738
squadra:16741
##ule:16742
questi:16743
figure:16745
aufgrund:16746
eli:16748
seat:16749
napoleon:16750
outside:16751
etxebizitza:16752
cuba:16754
parish:16755
jon:16757
donald:16758
huet:16759
jezik:16760
gibi:16764
igy:16766
nuova:16767
turk:16768
recent:16769
duong:16771
maio:16773
listopada:16775
wies:16776
ms:16777
habitatges:16778
nes:16780
tree:16783
zoals:16784
##tud:16785
##nca:16788
tod:16789
##int:16790
cimu:16791
amihanang:16792
jonathan:16793
hohe:16794
##hed:16795
ross:16796
ngoai:16797
kwam:16799
brazil:16800
dones:16802
guinea:16803
artean:16805
##und:16806
##ensis:16807
##kiego:16809
estudios:16810
##zel:16811
jaren:16812
artista:16813
programme:16814
brigade:16817
gehorte:16819
previous:16821
dame:16822
presso:16823
hele:16824
vladimir:16825
evidence:16826
ryan:16827
provided:16828
prior:16829
allo:16830
carriere:16831
maydoni:16832
pagina:16833
casti:16835
tarkibiga:16836
sector:16838
passe:16840
replaced:16841
grund:16842
score:16843
capita:16849
vest:16850
wrestling:16851
wis:16852
ayant:16853
wrzesnia:16854
estadistica:16855
feet:16856
##worth:16857
santos:16858
nomes:16859
simbad:16860
opstini:16862
jacob:16864
##oes:16865
inizio:16866
iar:16867
financial:16869
rolle:16870
recording:16871
pec:16875
ostra:16876
##eva:16877
harris:16878
tiep:16879
orbit:16881
architecture:16882
protein:16883
ugahon:16885
rodriguez:16887
##mine:16888
uj:16889
mitte:16891
electronic:16892
situation:16894
norske:16896
mobile:16897
cree:16898
toute:16900
pueblo:16901
nous:16902
estadounidense:16903
tradition:16906
##lah:16910
stock:16913
environ:16915
rom:16916
politiker:16917
genannt:16918
secretary:16919
sondern:16920
ministro:16921
##wo:16923
untuak:16924
tok:16925
surfat:16926
eva:16927
##dra:16928
seme:16929
medaille:16930
cell:16931
sometimes:16933
below:16934
muc:16935
gray:16937
politics:16938
detta:16939
danach:16940
rund:16941
kunhod:16942
gesellschaft:16943
##nse:16944
posods:16945
gonzalez:16947
##jski:16948
episodes:16950
##cer:16951
##gos:16952
larva:16953
estar:16954
diesen:16957
##tig:16958
kansas:16959
sarah:16963
jossa:16964
##zet:16965
realise:16966
pole:16967
delta:16968
lemesed:16969
germania:16970
letter:16971
##uan:16973
##weg:16974
especial:16975
montana:16976
salvador:16977
baseball:16979
etaient:16980
lincoln:16981
##ines:16986
febrero:16989
price:16993
viele:16994
estilo:16995
ost:16996
##kih:16997
enn:16998
pi:16999
##yen:17001
oan:17002
oh:17003
iglesia:17004
apple:17006
toan:17007
arizona:17008
cam:17009
going:17010
cancion:17011
sister:17013
robin:17014
matt:17015
dok:17016
wright:17017
mig:17019
##ngan:17021
mediana:17022
harvard:17023
parliament:17026
femme:17027
##ary:17028
##ap:17029
etudes:17031
voce:17032
##dom:17034
tienen:17036
aphia:17038
batalla:17039
cities:17040
keith:17042
byt:17043
classic:17045
search:17047
taxdetails:17048
length:17051
ty:17053
##kus:17054
editorial:17055
tetapi:17056
namun:17057
landkreis:17058
##nio:17059
whose:17060
greenwood:17061
kampung:17062
previously:17063
setembro:17065
dues:17066
flight:17067
additional:17069
pass:17071
apollo:17074
systeme:17075
cambio:17076
alem:17077
relations:17078
interest:17079
haut:17080
##ande:17082
duc:17083
oldu:17084
scotland:17085
##har:17086
oliver:17089
adams:17090
rhestr:17092
danh:17093
outubro:17094
lagu:17095
anglais:17096
##rik:17097
praefecturae:17098
##ony:17099
##nut:17100
frau:17102
##see:17104
svensk:17106
omdat:17107
academic:17108
jason:17110
##ized:17112
esse:17113
anul:17114
nuclear:17115
sabuah:17116
presence:17117
##zat:17118
gehort:17119
mtv:17120
rapport:17121
tutto:17122
menor:17123
aki:17125
haus:17126
kreis:17131
##shi:17132
cape:17133
provide:17134
graham:17135
erik:17137
febbraio:17138
vera:17140
mass:17141
##vic:17143
temperatura:17144
##essa:17145
asian:17147
kunst:17148
japon:17149
victory:17152
skal:17153
issues:17156
smrti:17157
sw:17158
gouvernement:17159
quasi:17160
conquest:17161
cependant:17162
parents:17163
tog:17164
##mm:17165
##kiej:17167
##pp:17168
##like:17172
plays:17173
opening:17176
agli:17178
troch:17179
##pel:17180
nye:17181
##dade:17182
##zt:17185
##kov:17186
muhammad:17187
andy:17188
##smo:17190
trova:17193
outras:17194
solar:17195
dod:17199
introduced:17200
nastepnie:17201
pictures:17202
jeu:17203
kw:17204
herbert:17205
##bin:17206
##stva:17207
assistant:17208
zero:17209
provincie:17211
polsce:17212
sara:17214
scale:17216
##aux:17219
feat:17225
estate:17228
gwefan:17230
move:17235
nombreux:17238
bilan:17239
rad:17240
mehrere:17242
blant:17243
qiladi:17245
novi:17246
indrindra:17247
quest:17248
tales:17249
placed:17250
selv:17251
##lles:17252
collins:17253
fatto:17254
republike:17257
kasagbotan:17258
owned:17259
fight:17260
dansk:17261
##ort:17263
link:17266
udalerrian:17267
lieutenant:17268
parc:17269
ken:17272
ministre:17273
wolf:17274
##its:17275
gustav:17276
##hn:17278
produce:17279
huong:17282
hoac:17284
##port:17286
departament:17289
frederick:17290
##ema:17291
means:17293
lines:17294
namn:17295
onun:17296
protection:17297
clan:17298
taking:17301
upp:17302
##lem:17303
approximately:17304
fernandez:17306
afin:17307
plata:17309
miasta:17311
morgan:17313
conditions:17316
bulletin:17318
abitanti:17319
gjorde:17320
##pu:17321
pie:17322
tallet:17323
phase:17324
bezeichnet:17326
heritage:17328
proces:17329
deres:17331
##ial:17333
towards:17334
encara:17335
seines:17336
genere:17337
##jar:17339
comun:17341
biasanya:17342
orleans:17344
##tro:17346
engelsk:17347
religious:17348
bisa:17349
##amente:17351
bird:17352
welt:17353
rata:17355
pazdziernika:17357
##lie:17359
ll:17361
aasta:17362
pt:17363
##kem:17364
##pus:17365
##row:17366
czerwca:17367
##nsa:17368
peninsula:17369
taman:17370
stark:17373
figura:17374
portal:17375
administrative:17376
famous:17377
egyik:17378
kamen:17379
joao:17381
grudnia:17382
entao:17383
##azione:17384
edwards:17388
##isa:17389
##tivo:17391
drug:17393
epi:17394
delhi:17397
effect:17400
tavakilian:17406
##gne:17407
successful:17409
##tiin:17410
gare:17411
podle:17412
lea:17413
morris:17414
piece:17415
##sos:17416
hms:17417
cesar:17418
orange:17419
##more:17421
##ain:17423
stated:17424
osa:17426
##hy:17427
buildings:17430
klein:17431
espece:17432
samen:17433
rise:17434
friend:17436
literatura:17437
font:17438
tas:17439
trieu:17440
##owego:17442
charlotte:17443
escuela:17445
plans:17446
letzten:17448
##kia:17451
##borg:17453
##zni:17454
pulau:17456
reached:17458
taona:17460
##iere:17462
issn:17464
prof:17466
perez:17467
mana:17468
insgesamt:17470
tinha:17473
##iana:17474
pablo:17475
cantante:17476
svenska:17477
polen:17478
americain:17479
property:17480
jewish:17481
gebied:17482
problema:17483
listed:17484
##isten:17485
souvent:17486
thought:17488
originale:17489
inside:17490
mempunyai:17491
certains:17492
villages:17495
noin:17496
corte:17499
siguiente:17500
always:17503
ocksa:17504
##nski:17505
palgrave:17506
##hausen:17507
lp:17509
##xo:17510
brought:17511
fuhrte:17512
##cal:17513
brand:17514
table:17516
##sal:17518
paz:17519
principales:17521
hung:17522
mari:17526
economia:17528
##film:17529
meses:17530
ellen:17531
comite:17532
##kte:17533
##istes:17535
centrum:17536
przed:17537
bugnaw:17538
eles:17539
##uit:17540
##rata:17542
obce:17545
metu:17546
maakt:17548
americana:17549
##cida:17550
jordbruksmark:17551
camera:17553
##vik:17554
mor:17555
weiteren:17556
##sing:17557
##lijk:17559
##house:17561
voz:17562
maps:17563
changed:17564
bayern:17565
dragon:17566
westen:17567
rusia:17570
toujours:17572
jadi:17573
altro:17574
continue:17576
morning:17577
tenien:17578
konig:17579
gebiet:17580
soll:17581
christmas:17583
vision:17584
str:17585
ketika:17586
jeff:17588
especially:17589
zegoen:17591
rate:17593
novembro:17594
##vio:17597
scored:17598
notre:17599
popisu:17600
mesa:17601
##cions:17602
raymond:17603
kin:17605
##hip:17609
##jak:17610
decided:17611
aa:17612
##iska:17615
fritz:17616
andreas:17619
medieval:17620
luigi:17621
pilot:17622
mile:17623
host:17624
##dre:17625
##jem:17626
##hon:17627
vilnius:17628
massa:17629
steht:17630
distance:17631
kedua:17634
turno:17636
chat:17637
folge:17638
##zan:17639
filmen:17641
desarrollo:17642
##bili:17643
deja:17644
sommer:17647
faritr:17648
basic:17649
danmark:17652
##ast:17654
pietro:17657
besteht:17658
jeune:17660
familiak:17661
travel:17662
##dig:17663
featuring:17664
regime:17666
sing:17668
toutes:17673
ro:17675
crime:17676
##sme:17678
kiba:17679
multi:17682
cabo:17683
falls:17684
##esa:17687
lipca:17689
corso:17692
airlines:17694
maggiore:17695
##ione:17696
##pes:17700
mientres:17701
stewart:17702
oz:17704
##ciju:17705
parque:17706
goals:17707
extra:17708
kur:17709
##yt:17711
paolo:17712
azonban:17714
obci:17715
quand:17718
seconde:17720
aller:17721
anders:17722
##lte:17723
zurich:17724
dato:17725
praha:17726
soc:17727
oblasti:17729
required:17730
republika:17732
kane:17733
##gue:17734
coma:17735
jedan:17739
wind:17740
articles:17741
##nem:17742
##nna:17743
mostra:17744
##out:17745
feature:17746
doit:17747
variety:17748
jours:17749
ph:17750
##del:17751
pasa:17752
pierwszy:17754
##iji:17756
alter:17757
industria:17759
kon:17760
terdapat:17763
itself:17764
sierpnia:17766
##ep:17768
enpresa:17769
hanya:17770
fact:17772
udalerri:17775
laura:17776
artikel:17777
hizo:17778
cela:17779
actualmente:17783
ruolo:17784
##ney:17785
kort:17787
mellan:17788
hommes:17789
meksiko:17790
winner:17791
worms:17792
demi:17793
holland:17794
occidental:17795
impact:17796
shot:17797
silva:17798
auteur:17799
magic:17800
ambos:17803
phil:17804
##zed:17807
democratic:17808
allan:17809
companies:17810
##nun:17812
rafael:17814
##cho:17815
##chten:17818
hijo:17819
lived:17821
deutsch:17823
calciatore:17825
freedom:17826
ihrem:17827
moun:17828
meeting:17829
##ccion:17831
fishes:17832
aid:17833
zudem:17835
khoang:17836
parks:17837
pitkin:17838
##vani:17839
nho:17840
##wany:17842
pauly:17843
ofte:17844
tanom:17845
deu:17846
marshall:17847
##fu:17848
uc:17849
agency:17850
##maa:17852
invece:17853
riviere:17854
runs:17856
lives:17858
valor:17859
doch:17862
##kog:17863
##sz:17865
czasie:17866
poeta:17871
matches:17872
##ets:17873
wisconsin:17874
comics:17875
##teur:17876
oldugu:17877
generally:17878
##nger:17879
kerk:17881
bong:17882
duo:17884
##yle:17885
##ib:17887
perancis:17888
virus:17890
insect:17892
finales:17895
hits:17897
sources:17899
location:17900
serta:17901
mayoria:17903
miami:17904
##neho:17905
gemeinden:17910
assim:17911
ministry:17914
kunnen:17915
nyaeta:17916
broj:17917
##jska:17918
##ches:17919
##sar:17920
kai:17922
wars:17925
significa:17929
birds:17932
anfang:17939
donna:17941
##keho:17943
tuli:17944
relasyon:17946
batang:17947
##town:17948
unique:17949
##ving:17950
activities:17951
perche:17952
steven:17953
vel:17956
forum:17957
circuit:17958
populacao:17959
highest:17963
societa:17964
ih:17966
buom:17969
provincial:17970
subtropikal:17971
franklin:17972
tennessee:17973
chemistry:17974
dutch:17978
behoort:17980
arnold:17981
significant:17982
##llen:17983
amerikaanse:17984
vocal:17985
##aban:17987
aujourd:17988
eugene:17989
kurt:17990
uniti:17991
changes:17992
pal:17993
things:17994
blanc:17995
##jet:17996
sollte:17997
veces:17998
umogon:17999
ktorej:18002
figlio:18003
tuttavia:18006
nhien:18008
olivat:18009
authority:18010
nello:18012
catalunya:18013
ucb:18015
springer:18017
hieu:18018
playstation:18019
##onia:18020
##tol:18021
termino:18022
##jne:18024
seves:18025
znajduje:18026
murray:18027
voe:18028
##eve:18029
hours:18030
universidade:18032
lago:18033
arbeitete:18034
ingen:18035
##vanje:18036
dean:18037
volgens:18042
deal:18043
faq:18044
phim:18045
##cat:18046
fish:18047
zaman:18049
imperio:18051
informacion:18053
pieces:18056
weiter:18057
init:18059
bizi:18062
noong:18063
##rung:18064
troba:18066
fille:18067
carter:18068
##keit:18069
geboren:18070
##lja:18071
elisabeth:18072
forca:18074
eeuw:18075
jerry:18077
locuitori:18078
truyen:18079
sola:18080
nat:18081
saka:18082
##erde:18083
loss:18085
attended:18086
##logie:18087
takes:18089
kwietnia:18090
milli:18092
##och:18096
fand:18097
alcune:18098
commander:18099
dela:18101
taiwan:18102
imdb:18103
notable:18104
affairs:18106
mali:18108
pana:18109
ev:18110
bezocht:18111
hrvatske:18113
nahe:18114
mag:18115
income:18116
miejscowosc:18117
##ming:18120
millions:18121
storm:18122
challenge:18123
alliance:18124
kennedy:18125
govpubs:18126
melbourne:18127
origen:18128
##itas:18129
kina:18130
vilket:18131
lucas:18134
istiqomat:18135
nee:18137
kuitenkin:18138
joue:18144
vuong:18145
##zka:18148
nota:18149
amely:18150
##cen:18151
cost:18153
oft:18154
publie:18156
##etan:18157
##bal:18159
audio:18160
##rice:18161
retired:18162
##kos:18165
beccaloni:18170
lies:18171
advanced:18172
rhone:18173
concept:18174
julia:18175
droit:18176
critica:18177
enfants:18178
##rada:18179
##imo:18181
##sci:18182
franse:18184
sony:18189
##wer:18190
tochter:18192
physical:18193
kuin:18194
golf:18195
parties:18196
extragalactic:18198
bandar:18199
defeated:18200
alebo:18202
antoine:18203
martinez:18204
filmu:18206
##hoz:18208
poland:18209
##nge:18211
bersama:18212
java:18214
##wyd:18215
studierte:18217
whom:18218
warner:18219
quebrada:18220
fir:18221
eru:18222
tete:18223
fo:18224
vote:18226
einwohner:18229
araneae:18230
jam:18231
cut:18233
##num:18234
engl:18235
##lne:18237
meksika:18238
##skych:18239
languages:18240
ung:18243
thien:18244
theme:18245
comets:18246
pelos:18247
multiple:18248
utama:18249
brasileiro:18251
lyon:18254
mediante:18255
stadion:18256
viena:18257
closed:18261
muchos:18263
resto:18264
poden:18266
value:18267
##pet:18268
grade:18269
olympic:18270
fjarilsart:18271
kien:18272
produccion:18273
jana:18274
conde:18276
words:18281
biblioteca:18283
campbell:18288
ramon:18289
tecnica:18290
##nosci:18292
asteroids:18293
hingga:18295
yeu:18297
##lde:18298
##ales:18299
##rent:18301
##ward:18303
kamadan:18305
##ulo:18306
##yu:18308
lite:18309
beyond:18310
##elo:18312
kurz:18314
ktorych:18316
dau:18317
poste:18319
##ase:18320
kinder:18321
stations:18322
##ology:18323
sota:18324
palace:18325
alexandre:18326
fellow:18328
muun:18329
##py:18331
##vala:18332
sexual:18333
##ust:18336
puntos:18337
tijd:18338
margaret:18339
inseeren:18341
infatti:18342
norden:18343
##aca:18346
ds:18347
##ligi:18348
froese:18350
dapek:18351
trai:18352
mille:18353
terminal:18354
##larda:18355
oregon:18356
prison:18357
hemiboreala:18359
ranking:18361
pham:18362
powiecie:18363
dona:18365
warren:18367
hu:18368
phi:18369
intentions:18371
##elijk:18372
classes:18374
##hez:18375
platnick:18376
tarixi:18377
gegrundet:18380
koln:18381
seizoen:18383
khoi:18384
ilay:18385
panama:18386
##eda:18387
jerusalem:18388
split:18389
fiind:18391
sagolsagol:18393
astronomical:18394
fosse:18396
commerce:18397
##tine:18399
datos:18400
pubblicato:18401
jejich:18403
##noj:18404
##ksen:18405
galerie:18406
comes:18408
wojny:18409
alternative:18410
hrsg:18412
horse:18413
tranh:18414
cosa:18415
essa:18416
lau:18418
##ieren:18419
dunya:18420
comedy:18422
strane:18425
##tina:18426
cafe:18427
allowed:18430
juz:18431
pesar:18432
boreal:18433
fora:18434
diverses:18435
primi:18436
mg:18437
turner:18439
istituto:18442
iowa:18443
edad:18444
sg:18445
evante:18447
rica:18449
colonel:18450
nunca:18451
##isia:18452
##non:18453
chemical:18454
##vre:18457
sinds:18458
sita:18459
##eron:18460
hace:18462
sci:18464
hindi:18465
voir:18466
contains:18467
gebruikt:18468
why:18469
esti:18470
minute:18471
grazie:18473
julie:18474
beat:18477
##nga:18478
ahol:18479
look:18480
factor:18482
greatest:18483
basen:18484
langs:18485
outcomes:18486
ime:18487
##nant:18488
barry:18489
##ped:18490
content:18491
##bury:18492
dollar:18494
sechs:18495
mano:18496
ingkang:18498
totale:18499
compania:18500
##sat:18503
ancak:18504
effet:18506
letters:18507
energie:18508
territoire:18510
##bt:18511
initially:18512
##uda:18513
luna:18515
populations:18516
rolling:18517
projet:18520
fet:18523
vain:18524
weekly:18525
tij:18526
##for:18527
application:18529
nhl:18531
fantasy:18532
edge:18533
seul:18535
uss:18536
##acio:18537
pozdeji:18538
##iri:18542
##licher:18544
terms:18545
lidz:18547
##erung:18548
##rz:18549
nhac:18550
wraz:18552
czesci:18553
unternehmen:18554
##jer:18556
vlinder:18559
bee:18560
perennial:18561
##rek:18563
##iel:18564
interesse:18565
militaire:18566
troisieme:18567
pusat:18568
matthew:18569
clube:18571
nez:18572
scoble:18573
card:18579
tomas:18580
meilleur:18581
mezvalora:18582
muassa:18583
mini:18584
older:18585
evans:18588
deeds:18589
sociale:18590
rundt:18591
##rian:18592
read:18593
tuyen:18595
dale:18597
jpl:18599
##riu:18600
especialmente:18601
atp:18603
igual:18604
castro:18606
territory:18607
##skom:18609
steel:18610
tel:18611
block:18612
kultur:18614
earlier:18615
lepindex:18616
charts:18617
##ef:18618
haber:18620
mart:18622
loma:18625
##ech:18626
numbers:18627
rady:18629
##shire:18632
rules:18634
##tidae:18635
stil:18636
##wana:18638
madonna:18639
crisis:18640
doua:18642
gift:18644
mua:18645
savannklimat:18646
##nel:18647
millones:18649
denis:18650
ended:18651
ridge:18653
alba:18654
ktorym:18655
republique:18656
##ical:18657
##ccio:18659
productions:18661
##bor:18662
grado:18663
##wych:18664
luz:18668
geographic:18669
##eno:18671
constitution:18673
create:18674
##kie:18675
nim:18676
gilbert:18678
##tein:18679
memoria:18680
##gy:18682
programs:18683
tropiskt:18684
wobei:18687
roberts:18689
adabinons:18690
egin:18691
finally:18692
dates:18693
##seg:18696
premiers:18700
##nz:18703
philosophy:18704
punk:18705
bergen:18706
##ovy:18707
chairman:18709
br:18710
sk:18711
##une:18712
wayne:18714
sean:18715
##wski:18719
liverpool:18720
question:18722
dina:18723
bevolkerung:18725
colonia:18728
tanana:18729
parker:18730
vater:18732
##eurs:18733
kreeg:18735
jeux:18737
edhe:18738
##gus:18739
amerikansk:18740
jiz:18741
direccion:18742
parmi:18744
aragon:18747
tome:18748
##ites:18749
characters:18751
gebruik:18752
##ric:18754
relacion:18755
lutego:18756
##ament:18758
dire:18759
diretto:18760
earl:18761
problems:18762
hope:18763
ligue:18765
border:18766
uni:18768
jay:18770
##sm:18771
##cno:18772
cuu:18773
hip:18774
vara:18775
##ario:18776
mesma:18777
sanchez:18779
##nier:18781
regno:18784
visual:18785
noted:18787
numerous:18790
flores:18791
savanna:18793
mieszkancow:18794
zagreb:18795
jen:18796
##isation:18797
equipes:18798
vuc:18799
grupa:18801
ward:18802
compagnie:18804
##dus:18805
types:18806
keversoort:18807
propria:18808
teve:18810
calcio:18811
chr:18813
utilise:18814
communaute:18816
suden:18817
overall:18818
counties:18819
pinakaduol:18820
directeur:18821
autonoma:18825
marcel:18828
##anie:18829
menggunakan:18830
mjesto:18831
bd:18832
saga:18833
launched:18838
fyrir:18840
houston:18842
lay:18844
##til:18846
tuc:18847
spent:18848
##nske:18851
##tea:18853
participe:18854
dintre:18857
meist:18859
greater:18860
conocido:18861
##zone:18864
##nska:18865
##idos:18867
blandskog:18868
squadron:18872
seguent:18873
already:18874
vm:18875
mexiko:18876
##oje:18877
moderna:18878
personnes:18879
protagonista:18880
##bil:18881
tylko:18884
hin:18885
detroit:18888
invasion:18889
serial:18891
chapter:18892
melhor:18895
lisaksi:18896
statistical:18898
lider:18900
algunas:18901
draft:18905
scenario:18906
aixo:18907
czesc:18908
rouge:18909
##cky:18912
mel:18914
volkstelling:18915
mountains:18916
conjunto:18917
sung:18919
##inin:18920
apud:18922
oggi:18923
##stu:18924
mala:18926
aixi:18927
rada:18928
prend:18929
personen:18930
##end:18931
remporte:18932
expedition:18933
archived:18934
##rii:18935
gerard:18936
louise:18937
num:18938
lahir:18940
dalsi:18941
reich:18948
partidos:18949
##aba:18950
tendo:18951
fifth:18952
##bahn:18953
##ub:18954
##lijke:18955
grave:18956
##ilor:18957
function:18958
tener:18959
##zik:18960
##wania:18961
estadio:18962
erfolgte:18964
conte:18965
##hof:18967
tek:18968
##hes:18969
fia:18970
remains:18973
specific:18974
ligt:18977
break:18979
seite:18983
goes:18984
appearance:18985
gut:18986
stuart:18987
wwe:18988
sexe:18990
lungo:18991
kommt:18993
deus:18994
mrs:18996
##ijos:18997
tvavingeart:18998
lorenzo:18999
dwa:19000
economica:19001
##istas:19002
cooper:19003
tatig:19006
austin:19007
toe:19008
origin:19009
quelle:19010
##over:19012
ligi:19013
bal:19014
tuy:19016
antalet:19017
travail:19020
afghanistan:19021
rule:19022
dek:19023
initial:19026
##zon:19027
resources:19030
mateix:19032
arbeit:19033
##oto:19034
finals:19037
quals:19039
phuc:19041
polonia:19042
forms:19044
##fel:19045
kara:19047
fans:19048
ejercito:19050
##owania:19051
commence:19055
casos:19056
##yla:19057
kirkwood:19059
bem:19060
aire:19061
np:19062
insbesondere:19063
musste:19065
##head:19066
peuvent:19068
brookings:19070
##lerin:19071
schweiz:19073
##iai:19075
tutte:19076
metropolitan:19077
wi:19078
##ole:19079
##ovat:19080
biti:19081
##iros:19085
videos:19087
contact:19089
##mir:19090
##esta:19091
kesobb:19092
coming:19093
comarca:19095
broadway:19097
welche:19099
rico:19100
##meister:19101
modelo:19102
attivita:19103
joint:19104
statistik:19105
labor:19106
molti:19110
##jici:19111
drzava:19113
##zony:19115
##kal:19116
podjela:19117
referencia:19118
##skich:19119
rond:19120
##ill:19121
done:19123
yellow:19125
##stadt:19126
represented:19127
prace:19128
leonard:19129
##cker:19130
fund:19131
palazzo:19133
##mp:19135
##ridae:19136
husband:19137
##pur:19139
habitat:19140
hour:19141
##bio:19143
alone:19145
primeros:19148
clara:19149
htm:19150
particolare:19151
revision:19152
cbs:19154
negro:19155
membro:19156
arc:19157
fly:19158
neil:19159
diagrama:19160
biografia:19161
technical:19162
turkiye:19163
extended:19164
kentucky:19165
##bat:19166
natur:19167
##aka:19170
continental:19171
lisa:19172
separate:19173
##cing:19175
choi:19176
enkele:19177
##stad:19178
##rta:19179
fischer:19180
temperature:19183
construccion:19184
vuosina:19188
##ions:19189
knowledge:19190
eigen:19191
mori:19192
misma:19193
acht:19194
linie:19195
majority:19197
rod:19198
agriculture:19201
amo:19203
kasarangan:19204
australien:19206
##chaft:19207
products:19208
choice:19209
##ento:19210
administrativna:19211
petite:19214
partei:19216
possui:19217
##tem:19219
marche:19220
partes:19221
scottish:19223
##dit:19224
kabul:19225
sui:19226
##owany:19227
##inde:19228
dich:19229
conform:19230
alabama:19234
animals:19235
tubud:19236
versi:19238
##kon:19239
hidup:19242
positive:19243
ernest:19244
creative:19245
nghe:19246
##ors:19249
##zny:19254
continua:19256
serve:19257
vivien:19261
estats:19262
favor:19266
kacamatan:19267
guatemala:19273
queensland:19274
actress:19275
sou:19276
##ists:19277
trio:19278
farm:19279
##rem:19280
hunter:19282
##kai:19283
krauze:19288
marriage:19289
vivo:19291
##af:19292
emperor:19293
guardian:19297
##tone:19298
filem:19299
##mistir:19300
klubu:19303
versione:19306
happy:19308
aceasta:19310
keep:19311
knight:19312
opposition:19314
##erna:19316
duitse:19319
lavoro:19320
##aga:19321
minden:19322
viz:19323
mam:19324
bc:19327
##kor:19328
christ:19329
laatste:19330
informatie:19331
folgenden:19332
bhi:19333
intelligence:19334
##bank:19335
ud:19337
idi:19338
disease:19339
fl:19341
studi:19342
##yer:19343
allemagne:19344
bawah:19346
increased:19348
localidad:19349
memory:19350
enough:19351
##scher:19352
braun:19354
sweet:19355
ollut:19358
kaip:19359
springs:19361
server:19362
selle:19363
riu:19364
familien:19365
thiet:19366
trust:19367
mata:19368
watson:19369
##iger:19370
sehingga:19372
esposa:19375
intre:19376
alaska:19378
sofia:19380
effects:19382
uzemi:19383
mail:19385
ps:19386
meno:19388
augusta:19389
informality:19390
oklahoma:19391
sole:19392
##ator:19393
exchange:19394
perang:19395
hd:19396
independencia:19397
yoktur:19398
platform:19399
entire:19401
partner:19402
promotion:19403
##nk:19404
beezley:19405
genera:19414
selection:19415
domingo:19417
aikana:19419
##rado:19420
towns:19421
mula:19422
konnten:19423
##nat:19424
ataupun:19425
lahko:19426
murder:19428
mien:19429
danas:19430
transfer:19432
tyskland:19433
polska:19434
serbia:19435
spirit:19436
artes:19437
quy:19438
linux:19441
rich:19442
cold:19443
dong:19444
masters:19445
dublin:19446
communication:19448
olympics:19450
entered:19451
eyes:19452
terug:19453
##can:19454
##lands:19456
dve:19457
chong:19459
annat:19460
##uer:19461
##log:19462
mora:19463
nicholas:19465
relationship:19466
##rkan:19467
quality:19468
##ities:19471
capitale:19472
opere:19474
influencia:19475
journalist:19477
##eben:19478
eduardo:19480
##iko:19481
convention:19482
nya:19483
##pun:19484
selama:19485
##eus:19489
harold:19490
operated:19491
jeweils:19493
rai:19494
deve:19495
##niho:19496
formar:19500
something:19501
lua:19502
##ged:19503
beta:19506
meet:19508
nghia:19511
bereich:19512
subject:19513
##vit:19514
filosofia:19519
sankt:19522
##cido:19523
leave:19524
revue:19525
uomo:19527
insects:19531
jumlah:19533
molecular:19534
uses:19535
passa:19536
cuoi:19538
##lage:19539
##els:19540
eye:19541
##uh:19544
verschillende:19545
sekitar:19546
##aci:19548
academie:19549
joueur:19551
makes:19552
##gal:19553
nintendo:19554
idee:19556
vrijeme:19557
ddr:19558
leis:19559
gebaude:19560
maryland:19561
##lainen:19562
##ller:19565
yet:19567
prins:19568
environment:19569
lloyd:19570
weil:19571
isa:19572
alten:19573
linear:19574
hell:19575
kaksi:19577
acordo:19581
biology:19582
##tua:19584
erhalten:19586
bl:19588
seasons:19589
##cem:19590
##rium:19591
males:19592
eden:19593
job:19594
##rato:19595
ishte:19597
bond:19600
##all:19601
##sza:19603
opstina:19604
badan:19605
sint:19606
crew:19607
starting:19608
miembros:19611
drums:19612
whole:19614
##oz:19615
blieb:19616
alatt:19618
rede:19619
futebol:19620
flying:19622
treatment:19624
toga:19625
angola:19628
##wald:19629
bredden:19630
tento:19631
sjon:19632
distancia:19634
##gung:19635
sales:19637
##eny:19638
##zin:19639
becoming:19641
vert:19643
##vou:19644
singapore:19649
expansion:19650
verwendet:19652
napoli:19653
obecnie:19655
hernandez:19657
mill:19658
##bos:19660
rain:19662
##stes:19664
##mie:19665
maine:19666
ingelesez:19668
comic:19669
##chte:19670
situato:19671
##zott:19674
races:19675
##iendo:19676
volgende:19677
nemet:19678
barn:19681
torres:19682
valt:19685
inglaterra:19686
##ics:19689
problemas:19690
arroyo:19691
guest:19692
schmidt:19693
tinggi:19694
jerman:19695
byli:19696
fill:19697
##gte:19698
##gon:19700
treba:19701
cal:19702
texte:19703
truc:19705
##pis:19706
bli:19707
blanco:19708
##eria:19709
municipi:19710
luuk:19711
istwa:19714
dick:19715
ri:19716
subsequently:19718
loc:19719
figures:19720
elementos:19721
##enie:19722
##izacion:19723
altitude:19725
voitti:19726
domenico:19728
bobby:19729
critics:19730
##ees:19732
##ude:19733
kalibonan:19735
##ann:19736
coa:19737
caused:19738
hecho:19740
carta:19741
browser:19742
wechselte:19743
##ndan:19744
anggota:19745
weeks:19746
passage:19747
sull:19749
ron:19751
focus:19753
##yr:19755
byc:19756
marta:19757
altura:19758
miglior:19759
mostly:19762
permanent:19763
serra:19765
##mont:19769
##ncy:19771
particularly:19772
zerbitzu:19773
medlem:19774
gap:19775
apie:19776
reviews:19777
##aar:19778
##lingen:19779
kata:19780
##pia:19781
##dat:19782
prozent:19783
##ual:19785
eddie:19786
batu:19787
gmbh:19788
latino:19789
miasto:19790
suisse:19791
kommer:19792
cos:19793
novela:19794
niz:19797
##sas:19798
hart:19799
outro:19800
##ned:19803
blitt:19804
hulle:19805
##jacy:19807
proceedings:19808
omgivande:19809
fuera:19812
sunday:19814
##uga:19816
lehen:19817
##als:19819
atlanta:19821
##osi:19823
lawis:19824
broadcast:19826
fem:19827
programma:19829
##jsi:19830
sort:19832
frankreich:19833
images:19835
kenya:19836
posicion:19838
valamint:19839
ceux:19840
##ador:19841
mitchell:19842
bande:19844
nl:19848
banks:19849
veya:19852
##seen:19856
zavatra:19857
casu:19860
studied:19861
jalan:19862
response:19863
walk:19864
sejak:19865
arms:19866
##tio:19868
denn:19869
toc:19870
aleman:19871
torino:19872
developpement:19873
maximum:19874
##pin:19875
innerhalb:19876
ukraine:19877
portugues:19878
##wane:19879
fuhrt:19880
comenzo:19881
##dag:19883
sociedad:19884
meaning:19886
##iku:19889
lloc:19891
ubernahm:19892
##ike:19893
staten:19897
resistance:19899
dus:19903
gilt:19904
kishi:19905
ecuador:19906
baino:19907
kings:19908
frankrike:19909
wagner:19910
situat:19912
labour:19913
harrison:19914
##znych:19915
paling:19917
muslim:19918
edir:19919
dor:19920
tung:19921
fighting:19922
##ssen:19923
itt:19924
erreichte:19925
##has:19926
zones:19928
##rze:19929
vienna:19930
nekoliko:19931
##pas:19933
royaume:19935
##eko:19936
##tation:19938
hannover:19940
entrada:19941
yera:19942
##vali:19943
cand:19944
method:19945
termasuk:19946
individuals:19948
enquanto:19952
presented:19953
abraham:19954
##umi:19955
learning:19956
unido:19957
sund:19960
forced:19961
##vni:19962
basso:19964
##joje:19965
larry:19968
miatt:19969
carmen:19970
longer:19971
darauf:19972
sik:19973
miedzy:19974
canyon:19975
galicia:19976
velmi:19977
strada:19978
julho:19979
processo:19980
besonders:19982
nego:19983
melalui:19984
verein:19986
polish:19991
physics:19992
minangka:19993
estacion:19994
salon:19995
tours:19997
sma:19999
weltkrieg:20000
dock:20002
maakte:20003
mannschaft:20005
##list:20007
holy:20008
##nze:20009
dun:20010
sien:20011
hanet:20012
dice:20015
motion:20016
ancienne:20017
hora:20018
lama:20019
diversi:20020
utstrackningen:20021
primarfaktor:20022
might:20025
giam:20026
llego:20027
primarfaktorn:20028
hojdkurva:20030
museu:20031
framraknad:20032
##ering:20034
chance:20035
##sce:20036
masodik:20037
##cina:20038
vua:20040
trans:20041
wanted:20043
rob:20044
##rina:20045
##iidae:20046
lalat:20047
nombreuses:20049
##nosc:20050
##imi:20052
noen:20054
estes:20055
##jena:20056
supported:20057
product:20058
napr:20060
critical:20061
osten:20063
alfonso:20064
trial:20067
##owym:20068
models:20070
soccer:20071
houses:20073
tzv:20074
isabel:20075
roland:20076
fair:20077
filho:20078
core:20079
dennis:20080
gano:20081
kill:20082
##ones:20085
vengono:20086
nigeria:20087
passed:20088
interes:20089
tarihinde:20090
belle:20091
azt:20092
verschiedenen:20093
##rk:20094
camara:20095
supreme:20096
dezembro:20097
cook:20098
terry:20099
osterreich:20102
guitarra:20103
##oso:20104
leaving:20105
ralph:20107
##ost:20109
versions:20110
yil:20111
equipos:20112
kaiser:20114
defensa:20116
diversas:20117
canto:20118
referred:20119
perry:20122
##olo:20123
keer:20125
esempio:20128
alleen:20129
mabibilngan:20130
##bare:20132
workers:20133
instrumental:20135
sovietica:20136
tiga:20137
grey:20138
##ores:20139
pet:20141
diri:20142
bp:20143
muzeum:20144
##vam:20145
zweite:20146
foot:20147
miejscu:20148
ina:20150
##vana:20151
bulgaria:20152
inggris:20153
statistiku:20154
llamado:20155
pouvoir:20156
sveta:20157
eingesetzt:20158
bare:20159
laurent:20160
navnet:20161
akademie:20162
muss:20163
baten:20167
spesso:20168
##ikan:20170
drzave:20175
hughes:20177
devant:20179
fik:20180
serving:20182
housing:20183
signal:20184
junho:20185
biri:20186
nhk:20187
recht:20188
preis:20189
davon:20190
raz:20192
dallas:20193
controle:20194
shakespeare:20195
kjent:20196
kerajaan:20198
alpha:20199
economy:20202
facts:20203
##ime:20204
punt:20205
ceske:20206
thailand:20207
##skie:20209
shown:20210
ot:20213
voix:20214
##ello:20215
zavod:20217
langue:20219
talk:20220
elite:20221
tribunal:20223
horien:20225
railways:20226
famuls:20227
empreses:20228
##mel:20229
lodanefa:20231
##zeni:20232
nouvelles:20233
resmi:20234
inglese:20235
##ttu:20236
aga:20237
cualquier:20239
corona:20241
sens:20242
ejemplo:20244
incolarum:20246
henrik:20247
representa:20248
gewahlt:20251
napriklad:20255
militare:20256
##oko:20257
leven:20258
exito:20259
rail:20260
korean:20261
publicado:20262
grada:20265
nghi:20266
bush:20267
tall:20270
##tott:20272
lor:20273
materials:20278
cricket:20280
provinz:20281
importancia:20283
existence:20284
##inger:20285
##gun:20286
visa:20287
sarajevo:20288
##yd:20289
judge:20290
fisica:20291
increase:20292
translated:20293
meister:20294
rumah:20297
##ded:20298
wei:20299
##tare:20300
safety:20301
ngu:20302
larger:20306
julian:20308
mixed:20309
speelde:20310
principios:20311
entstand:20312
episodi:20313
broju:20314
alemanya:20315
errichtet:20316
ongeveer:20317
resultado:20318
themselves:20319
troops:20320
##eld:20322
poor:20323
##tok:20327
abd:20328
kiss:20329
##of:20332
lanka:20333
possono:20334
##aro:20335
reports:20336
ezt:20337
vizier:20338
sonora:20339
europea:20343
couple:20344
noe:20345
comercial:20347
schule:20348
domaine:20349
indien:20350
yaitu:20351
juego:20354
kulle:20355
edizione:20357
##rant:20358
##ttaa:20359
provides:20360
danske:20362
nancy:20363
##lum:20364
jer:20365
watch:20367
raised:20369
##gin:20371
avea:20372
hindu:20373
jules:20376
karriere:20377
##zada:20378
sergio:20379
cuc:20380
##eten:20381
appears:20382
bakarrik:20384
##vil:20386
jogo:20387
tenir:20390
tommy:20391
studium:20395
bataille:20396
giro:20397
gomez:20398
vis:20399
##tische:20400
politician:20401
##nji:20402
macht:20403
uruguay:20404
beispiel:20405
##elijke:20406
toimi:20408
##inu:20409
jotka:20411
recherche:20412
hoe:20414
aparece:20415
capo:20418
description:20419
emakume:20420
rispetto:20421
##dni:20422
typu:20423
stan:20424
classical:20429
vaxtlighet:20432
bruder:20433
leopold:20434
volte:20436
##taja:20438
##lni:20439
##nic:20440
kdyz:20442
planeta:20443
mwaka:20445
seda:20446
##wr:20448
composed:20449
armada:20450
masih:20451
##hat:20452
rick:20454
carabidae:20455
richtung:20456
dessa:20457
burg:20459
boeing:20460
nfl:20461
bergig:20462
nave:20463
glass:20464
##zado:20465
legend:20466
limite:20468
##kk:20470
##gut:20472
sampai:20473
salt:20474
ricardo:20476
frederic:20477
mk:20478
aktiv:20481
helt:20482
mely:20483
formal:20484
rencontre:20486
dorf:20488
osoba:20489
nhiem:20490
intr:20491
puesto:20492
chanson:20493
##oda:20495
##kka:20497
methods:20498
singh:20499
noir:20500
arabe:20501
travers:20502
cars:20509
successo:20510
sangat:20514
##aje:20515
##ved:20516
medicina:20517
pois:20518
seguinte:20519
giorno:20520
millionen:20521
yels:20523
beautiful:20524
##ization:20526
##ode:20528
abad:20529
femmes:20530
kasnije:20531
fields:20532
##sberg:20533
daher:20534
felipe:20535
fez:20539
##bs:20540
##ologie:20541
demu:20542
##mise:20543
seventh:20544
##uja:20546
##ction:20547
ships:20548
serien:20549
forward:20550
##iet:20551
klimatet:20552
posod:20553
acid:20557
##tien:20558
pequena:20559
organizacion:20561
aret:20564
kate:20567
bolivia:20568
failed:20572
gdy:20576
tercer:20577
lomanefs:20578
abinadons:20579
asoelol:20580
baldot:20581
canon:20585
voms:20586
nothing:20587
nghiep:20588
egypt:20589
adabinoms:20590
pai:20591
carriera:20592
mujeres:20594
##teen:20595
tysk:20596
##jana:20597
therefore:20598
fit:20599
cadre:20600
profesional:20601
pocet:20603
moral:20604
sept:20605
universita:20606
ikinci:20607
giua:20608
produzione:20609
##ote:20611
naselja:20613
rahmen:20614
ley:20616
boli:20617
principio:20619
quang:20624
##xi:20625
danny:20626
nearly:20629
damals:20630
##tii:20632
erschien:20637
retour:20638
illa:20639
manual:20640
feb:20641
furent:20642
spielen:20643
##unu:20646
picture:20647
natomiast:20648
mercedes:20649
philippines:20650
##eb:20651
tanah:20652
##gd:20653
sulle:20654
##eres:20656
heat:20658
gmt:20659
allemand:20661
emma:20662
##rate:20664
jabal:20665
##lada:20666
binnen:20670
##kes:20671
##cek:20672
clear:20674
##luk:20675
udalerriko:20676
entwicklung:20677
minas:20678
residents:20679
##schap:20680
kebangsaan:20682
unite:20683
movimento:20684
pena:20685
metatra:20686
punika:20688
belgique:20689
haavon:20692
voyage:20693
oglu:20695
newspaper:20696
poesia:20698
alain:20700
bachelor:20702
info:20704
navn:20707
illustrated:20708
derniere:20710
atraves:20712
palacio:20713
incluso:20715
myohemmin:20716
luke:20718
##zki:20719
waarin:20724
attention:20726
chen:20728
reed:20729
breve:20730
##oc:20731
marques:20732
edgar:20735
##zug:20736
##jaca:20737
##gg:20738
proceso:20739
magnitudo:20740
direkt:20742
##cta:20744
ponte:20746
##icus:20749
##gli:20752
bile:20754
grands:20755
situs:20757
jogos:20758
finden:20759
##uru:20760
frauen:20761
ligg:20762
ebbe:20763
moving:20765
buch:20767
##kiem:20770
bestand:20771
jahres:20772
##rni:20773
catolica:20775
res:20776
mapa:20777
berliner:20779
walay:20780
##but:20781
says:20782
milieu:20783
albumet:20784
rap:20786
metri:20788
mehiko:20789
connu:20790
nederlands:20792
##back:20793
twenty:20794
bestaat:20795
boyuk:20796
porifera:20797
guillaume:20800
cukup:20802
espanya:20803
##eto:20804
fleet:20806
brief:20807
mellem:20810
namnet:20812
kung:20813
kembali:20815
##mek:20816
maritime:20817
pink:20818
ecrit:20819
krieg:20821
districts:20824
ferrari:20826
nachadza:20830
gizon:20831
verder:20832
##isti:20834
communications:20835
hero:20837
##lit:20838
behem:20842
silla:20844
ditamukan:20845
etienne:20846
ars:20847
##late:20849
technique:20850
gemeinsam:20851
##ij:20852
vann:20853
evento:20854
eri:20855
garde:20856
##yk:20857
chapelle:20858
thap:20859
iraq:20860
applied:20862
believed:20863
roles:20866
laquelle:20870
##tera:20871
birth:20873
vittoria:20874
##vaxtart:20875
##iers:20876
##rede:20880
##lista:20882
beijing:20885
mainly:20886
##dis:20888
instrument:20889
successivamente:20890
biztanleak:20891
crown:20895
polos:20896
##cznych:20897
latina:20898
bucuresti:20899
turned:20900
amour:20901
soldiers:20905
chuong:20906
lid:20908
colin:20909
peso:20910
dobe:20911
onu:20912
infantry:20913
lenga:20915
dix:20916
told:20917
synopsis:20918
amore:20919
diger:20920
newton:20922
##ont:20923
##dung:20924
lagi:20926
insekto:20927
resultat:20928
dakota:20929
hp:20931
agit:20933
fusion:20934
locale:20935
naglangkob:20939
nazi:20941
##ings:20943
secondary:20944
claimed:20947
infanterie:20948
policia:20951
pgc:20952
latter:20954
tur:20956
levels:20957
##platz:20958
chang:20959
##rka:20960
colonial:20961
aun:20962
hudson:20963
##ston:20964
##oka:20968
lance:20970
construit:20974
tercera:20975
linh:20976
willem:20977
##con:20978
beaucoup:20979
ambiente:20980
##juk:20982
apa:20986
##rel:20989
##alt:20991
tank:20992
##nsis:20993
laguna:20994
trien:20995
asya:20996
gate:20997
arm:20999
conflict:21001
saj:21002
stessa:21003
floor:21005
grandi:21006
mbc:21008
bato:21009
gloria:21010
stort:21011
##uro:21012
offered:21013
dresden:21016
activity:21017
##etta:21018
independence:21019
sortie:21020
vicente:21022
##yang:21023
ronde:21025
savo:21026
ordine:21027
##ivi:21028
helped:21029
##ance:21030
##oro:21031
##oy:21033
hugh:21034
##ovic:21037
stade:21040
baza:21041
isola:21042
archaeological:21045
teki:21046
cio:21047
##geschichte:21050
kes:21051
rev:21053
regina:21056
approach:21057
pessoas:21058
##tad:21060
andres:21061
nepal:21062
##zzo:21063
donnees:21064
raison:21065
ubicado:21068
aproximadamente:21069
kdy:21071
habe:21072
phoenix:21073
acquired:21075
federico:21076
##cada:21077
##kap:21078
##dne:21079
catre:21081
amateur:21083
stelle:21084
coi:21085
abans:21088
erroldatutako:21089
archives:21090
educacion:21093
##ated:21096
otte:21100
republican:21103
##grafia:21104
facebook:21105
railroad:21106
exemplo:21107
lille:21108
afrique:21112
sweden:21113
##rier:21116
grammy:21117
##vanja:21118
karel:21120
celebre:21125
arean:21126
jeji:21127
etxetan:21128
annet:21130
##icu:21131
nhau:21136
sebelum:21138
trata:21139
seattle:21140
queste:21143
ait:21144
oedd:21145
derby:21146
##zuje:21147
hoy:21150
origins:21151
##hold:21152
##band:21154
##ndi:21155
##rra:21156
account:21157
##jn:21158
utah:21163
gouf:21164
lorsque:21165
tell:21166
indica:21168
gara:21169
bowl:21170
eksentrisitas:21172
renda:21173
latvijas:21176
cuales:21181
##ois:21182
erneut:21183
##js:21184
kar:21185
nada:21188
projects:21189
##atan:21190
joachim:21191
oppet:21192
##vaxter:21193
properties:21195
importance:21196
pequeno:21198
environmental:21199
triple:21200
scarabaeidae:21202
vezes:21204
boris:21205
##ular:21207
manner:21208
einsatz:21210
guard:21211
venus:21213
fivondronan:21214
##idas:21215
guru:21218
wurttemberg:21219
carried:21220
consists:21222
hen:21223
dagli:21224
lucky:21226
engineer:21227
##sag:21230
publishers:21234
##nud:21235
argent:21236
##ligt:21237
warszawa:21238
campos:21242
quel:21243
futuro:21244
baie:21245
senator:21246
eduard:21247
pasukan:21248
risk:21249
escritor:21250
##vie:21251
castillo:21252
giorgio:21253
podem:21256
onda:21257
senare:21259
##nii:21260
clima:21262
techniques:21263
sowohl:21264
##czne:21265
nina:21269
pond:21270
siguientes:21271
ganz:21272
propia:21273
produit:21275
bidadas:21276
##eth:21278
siempre:21279
##hem:21281
maxima:21284
##tv:21286
dituzten:21287
marvel:21288
quartier:21289
##nka:21290
whether:21291
tamil:21292
duoi:21293
natal:21296
covered:21297
##tand:21301
##bie:21302
attraverso:21306
hoat:21307
gioco:21308
##tischen:21309
##lies:21311
sacaro:21312
links:21313
organ:21314
rare:21315
flera:21316
allt:21318
spiel:21319
barruko:21320
teresa:21321
founder:21323
tanzania:21324
quatro:21325
##win:21326
##rir:21327
ikkje:21328
##eau:21329
disc:21330
vinden:21331
tots:21333
##rios:21336
resume:21337
driver:21338
frere:21339
teen:21342
save:21343
jun:21345
princess:21346
angelo:21348
ayiti:21349
##kaan:21350
##iera:21351
##pie:21354
franzosischen:21355
debe:21357
##unda:21358
seccion:21359
inferior:21360
##bon:21361
pote:21362
trains:21363
bear:21364
##ord:21366
universitas:21368
##tif:21369
comando:21370
topad:21372
cay:21373
hawaii:21374
brook:21378
laika:21379
candidate:21382
compose:21383
athletic:21384
croix:21385
kerult:21386
travaux:21387
##aya:21388
oppervlakte:21389
batman:21390
##uto:21391
eigenen:21393
##oti:21394
connecticut:21395
isso:21396
talent:21397
zahlreiche:21401
##sco:21402
bilang:21403
ministerio:21404
mudo:21406
hacer:21407
musicale:21408
medan:21409
olla:21411
thuy:21412
cameron:21413
promoted:21415
semua:21417
romance:21419
winners:21421
potter:21424
universiteit:21425
ideas:21427
##yl:21428
##lege:21432
planetesimal:21434
helen:21437
berada:21439
##lom:21440
regierung:21441
proyecto:21442
torna:21444
sis:21445
arbeiten:21446
sorti:21447
##att:21448
heaven:21449
tunnel:21451
##cis:21452
castello:21454
budget:21455
rusya:21457
median:21458
##zos:21459
raven:21460
durowan:21461
kabugangan:21463
gi:21464
occasion:21465
emmanuel:21466
grecia:21469
##hs:21470
conta:21471
nacio:21473
membuat:21474
generoko:21475
##ydd:21476
evit:21479
powiat:21480
matrimonio:21481
mistrzostw:21482
##lje:21483
bonus:21484
##aj:21485
hombres:21487
ichneumonidae:21488
##tati:21489
formerly:21490
wiley:21491
disebut:21493
attempt:21495
screen:21496
##recht:21497
earned:21498
pernah:21499
proto:21500
##wen:21502
baja:21503
ig:21504
responsible:21505
think:21506
cleveland:21507
leadership:21508
proposed:21509
##ond:21510
iba:21512
butler:21513
leger:21515
consiste:21516
##ake:21518
turkey:21519
cf:21521
contest:21523
##lang:21525
soprattutto:21528
agreement:21531
rios:21532
familian:21535
build:21536
##gem:21538
carreira:21539
cumu:21540
considera:21541
populatie:21542
veliki:21544
desert:21546
conhecido:21547
discovered:21550
isto:21551
##ration:21552
edinburgh:21553
penduduk:21554
frans:21555
presencia:21556
eram:21557
conocida:21558
aviation:21559
wave:21560
lancado:21561
recibio:21562
fondo:21563
remaining:21564
caroline:21566
##com:21567
potential:21570
mercado:21571
reality:21573
sachsen:21574
huu:21576
##sca:21577
##zem:21579
buah:21581
ultimos:21584
##zacion:21585
njegov:21588
palais:21590
##zing:21593
beatles:21594
mouvement:21595
lars:21597
aide:21598
gav:21599
nazwa:21600
##tle:21601
##por:21602
bremen:21603
##stas:21604
##tiques:21606
magnus:21607
jepang:21609
dwoch:21611
hennes:21614
habitantaro:21615
##ace:21617
regel:21620
##rre:21621
kladogram:21622
##anti:21624
harom:21626
fuit:21627
alemania:21629
nov:21630
monaco:21631
##ume:21633
emperador:21634
sevilla:21635
misto:21636
uy:21637
stare:21638
insel:21639
##cken:21642
##zak:21643
ronald:21644
bundesliga:21646
officers:21647
wu:21649
amerikai:21650
##ako:21653
mir:21659
factory:21661
swedish:21662
##zil:21663
nearby:21665
draw:21666
diaz:21667
baltimore:21669
xay:21670
preko:21672
toerana:21673
ted:21674
asked:21675
vuelta:21678
govern:21679
nachazi:21680
galeria:21681
talalhato:21682
shaw:21685
pressure:21686
restaurant:21688
cina:21689
klaus:21690
##tni:21691
sophie:21692
antiga:21693
thuat:21694
kecil:21696
##tate:21697
##wn:21699
baixo:21700
dess:21701
##rius:21702
terhadap:21704
sezon:21705
czech:21706
##nischen:21707
maken:21713
muda:21714
longitud:21715
jennifer:21716
jozef:21718
najveci:21719
##ierten:21721
##bro:21722
extreme:21723
senate:21724
formacion:21725
paese:21726
##ierung:21727
holstein:21728
tradicional:21729
##aceae:21731
teacher:21733
tekst:21734
gegenuber:21735
polskiego:21736
neo:21737
##skem:21738
francuske:21743
busklandskap:21744
##eja:21746
##water:21747
darunter:21749
mizaka:21750
alma:21751
flow:21752
miembro:21753
foto:21756
allah:21757
suatu:21759
bretagne:21760
wsi:21761
animation:21762
rs:21764
vegas:21766
##tva:21767
asteroides:21769
ciencias:21771
hof:21772
medico:21773
orbita:21774
##ovych:21775
##rica:21776
terzo:21777
illetve:21778
beginn:21779
vong:21780
calais:21781
stein:21782
bern:21784
alles:21785
liv:21786
meste:21787
smaller:21788
fills:21790
asociacion:21791
##gues:21792
chelsea:21793
tor:21794
##tung:21795
##lara:21800
denna:21801
theorie:21804
ander:21805
henta:21806
hands:21809
step:21811
tip:21812
luu:21813
##cum:21814
estructura:21815
aria:21817
sistemas:21818
armenia:21819
considerado:21821
pendidikan:21823
##lare:21825
historie:21826
helena:21827
hrvatskoj:21828
##dora:21829
isaac:21830
##unt:21832
stora:21833
elo:21834
ram:21835
kama:21836
bases:21837
horas:21838
parroquia:21840
##lea:21841
sach:21843
esimerkiksi:21844
sbs:21845
unita:21846
##wing:21848
wiener:21849
##nam:21850
issued:21851
groep:21852
pari:21854
##ures:21855
langaw:21858
craig:21859
##aus:21860
tedesco:21863
persone:21864
hoan:21866
ciencia:21869
##else:21871
suid:21872
##ijas:21873
##ory:21875
prendre:21876
oest:21879
sitz:21880
vancouver:21881
cite:21882
ehemaligen:21883
kbs:21884
ruta:21885
servicio:21886
tar:21888
settlement:21889
linda:21890
studia:21891
ion:21893
tenen:21894
adult:21896
armas:21897
##tne:21899
##icos:21900
islamic:21903
tyske:21905
##ock:21906
mujer:21907
auguste:21908
starb:21909
linia:21912
cymru:21913
nuk:21918
indonesien:21920
italiane:21921
reis:21922
sendiri:21923
##lina:21929
kuid:21930
ello:21931
sob:21932
premi:21934
demo:21936
##eer:21937
oclc:21939
##vna:21940
kommunadir:21941
marque:21944
##kich:21945
poetry:21947
bulak:21948
actions:21949
derecho:21951
yen:21952
ailleurs:21953
exterior:21954
semana:21956
irlanda:21957
realisation:21959
fell:21960
gregory:21961
prova:21962
visto:21963
tiden:21965
samma:21966
noord:21968
##znej:21970
divenne:21971
##tter:21972
thing:21973
scenes:21975
desse:21978
wedi:21979
ibm:21980
natura:21983
finlandia:21984
medalla:21986
##itz:21987
kuten:21988
industrie:21989
yangi:21990
amikor:21992
emil:21995
fevereiro:21996
ages:21998
bor:22001
gaan:22002
diana:22004
holding:22005
llamada:22009
pouze:22010
economics:22012
horn:22013
regionale:22015
##tou:22016
ciuda:22020
jamais:22021
##ants:22022
##eme:22023
lage:22024
ktorego:22025
zog:22026
##mba:22028
kategorie:22030
sabagai:22031
dieu:22032
faith:22033
##gis:22034
spencer:22036
##arna:22037
vooral:22039
teh:22042
fuerza:22043
sitio:22045
##fo:22046
rong:22048
##lot:22050
lugha:22052
sajtu:22056
##low:22057
grupy:22059
##rdi:22061
diocese:22062
gadang:22064
##dale:22065
efforts:22066
##eck:22067
protiv:22068
ankara:22069
regne:22070
espagne:22072
reach:22074
composition:22075
##niku:22076
##hal:22077
criminal:22078
ama:22079
igreja:22080
##lidae:22081
sinn:22082
nbc:22083
bella:22084
highly:22085
werke:22086
aquests:22088
gitara:22089
stappklimat:22090
universe:22092
matang:22094
atletico:22095
parlament:22096
jonas:22097
eurovision:22100
compositor:22102
##tvo:22103
hod:22104
heutigen:22105
##ize:22107
beispielsweise:22108
waktu:22109
##bang:22110
alessandro:22111
ennen:22112
##sjon:22113
vari:22115
adrian:22116
##cted:22117
competed:22118
mozna:22119
verschiedene:22122
marketing:22124
##lsen:22127
urtean:22128
loan:22130
primero:22131
taip:22133
satellite:22135
cinque:22136
females:22137
victoire:22140
acting:22141
believe:22142
investigacion:22143
kus:22145
olyan:22147
reina:22148
cristo:22149
electoral:22151
gr:22153
bonn:22154
staaten:22155
comandante:22156
campana:22158
neste:22159
hr:22160
dinastia:22163
presenza:22165
##iano:22166
geht:22167
russo:22168
constructed:22169
renault:22170
##ious:22173
allow:22174
zivota:22175
eso:22176
expression:22177
appearances:22178
directly:22179
hansen:22181
leaders:22182
performances:22187
spanien:22189
svoj:22191
##kla:22192
territori:22193
mc:22194
parfois:22195
##adi:22196
temas:22197
mutter:22198
wallace:22199
justin:22200
circle:22201
placa:22202
traffic:22203
manjadi:22204
herman:22205
##lna:22206
lisboa:22207
##cies:22208
pemain:22209
findet:22213
bolo:22216
marne:22218
evil:22219
details:22220
tuan:22222
internazionale:22223
##lim:22224
##cna:22226
mandat:22227
internationalen:22228
##hte:22229
porter:22230
muze:22232
sand:22234
philosophie:22236
##eca:22238
applications:22239
jakob:22240
noiz:22242
alvarez:22244
api:22245
huy:22247
slik:22248
initiative:22249
households:22250
halle:22251
maestro:22252
louisiana:22253
hombre:22254
##ningar:22257
mio:22258
seulement:22260
ecology:22262
tuoi:22263
definition:22267
fun:22271
revealed:22275
battaglia:22276
##rien:22277
dur:22278
berkeley:22279
skole:22280
poet:22281
##tit:22282
vf:22284
xu:22286
indak:22287
elena:22288
luvun:22290
edu:22291
##wej:22295
historique:22296
mee:22297
jis:22298
##heden:22300
azul:22301
vive:22302
prvo:22303
czy:22305
##wego:22306
formato:22310
lion:22311
emploi:22313
humanos:22314
##imento:22317
statistica:22319
janos:22321
##baar:22322
livello:22325
sieben:22326
fighter:22329
berasal:22330
europy:22332
zwar:22333
setiap:22334
trophy:22336
##sation:22337
nasional:22338
tergolong:22339
parallel:22340
istvan:22341
netherlands:22344
devido:22345
##lir:22346
kontsultatua:22347
statue:22349
bord:22350
##owanie:22351
ngaran:22354
##bet:22356
dl:22358
festa:22359
broadcasting:22360
##dik:22361
kein:22363
lb:22364
##jace:22365
violence:22366
tornou:22368
trabalho:22369
olivier:22371
tru:22372
prva:22375
elu:22376
soran:22377
##raum:22378
##ymi:22379
medios:22381
orixinal:22385
snow:22386
basse:22387
tax:22389
domu:22390
mogu:22391
percent:22393
nomination:22395
managed:22399
sicilia:22400
bring:22401
collaboration:22402
toont:22403
capacity:22404
##koj:22405
northwest:22406
especes:22407
partit:22408
crear:22409
##ossa:22411
lassen:22412
translation:22413
kuala:22414
completamente:22415
antigua:22417
firm:22418
cesky:22420
prije:22421
theodor:22422
recently:22423
diamond:22425
mimo:22426
zuvor:22427
likely:22430
##zek:22431
derde:22432
vitoria:22433
steinicke:22434
typ:22435
olika:22436
##uo:22438
battalion:22439
genoemd:22441
##icke:22443
raw:22445
leaves:22447
alabak:22450
blanca:22451
birlikte:22455
egli:22456
##ulus:22460
kaum:22461
komun:22462
laws:22463
alli:22466
questions:22467
kor:22468
historii:22469
cycle:22471
glasgow:22472
##fs:22474
radar:22475
propio:22477
##ulu:22478
cuerpo:22479
teto:22480
vaak:22481
##tow:22482
##tada:22483
##cz:22484
##enne:22485
campagne:22486
graduated:22488
convirtio:22489
equipment:22490
sarupo:22491
pou:22492
calle:22496
artens:22497
anglo:22498
wsrod:22500
fare:22501
butun:22502
tj:22505
##aron:22506
##racion:22507
sign:22508
marcapada:22509
primarily:22513
##idea:22514
vokal:22515
stod:22517
prominent:22521
share:22522
##ess:22523
yard:22524
##gn:22525
##gie:22526
probleme:22527
guns:22528
lata:22529
##nung:22531
plantas:22532
tropas:22533
cordoba:22536
nua:22537
utanas:22538
murphy:22540
operating:22541
honneur:22542
dang:22548
escape:22549
kloster:22550
tada:22551
caracter:22552
maji:22554
opinion:22556
##ug:22557
pouco:22558
edat:22559
stay:22560
jabatan:22561
rainer:22563
##oir:22564
historico:22565
warszawie:22567
tartu:22569
epouse:22571
broken:22576
pope:22578
jugador:22579
##nidae:22580
int:22581
cea:22582
##trice:22584
difference:22588
commonwealth:22589
ida:22590
scritto:22594
cells:22596
commissioner:22597
obres:22599
reunion:22600
pradesh:22601
brooklyn:22602
reforma:22604
scuola:22606
habian:22608
arter:22609
gamle:22610
join:22611
ursprunglich:22613
##halt:22614
papers:22615
kat:22616
fim:22617
##uka:22618
##ery:22619
##ega:22620
diarsipan:22622
koyun:22623
angles:22624
situado:22625
betrieb:22626
ensimmainen:22627
tabantuak:22629
trail:22630
kasaluruahan:22634
##okat:22635
acteur:22637
##ome:22639
ireo:22640
iata:22641
##jin:22642
waters:22643
##osta:22645
legion:22646
russland:22647
planning:22648
##lung:22649
personnel:22652
##igkeit:22653
sets:22655
joel:22656
servir:22658
db:22660
brasileira:22661
liu:22665
allora:22666
unknown:22669
formas:22670
##tele:22672
innych:22673
tiek:22674
shah:22675
toa:22676
frontera:22677
mellett:22678
concerto:22681
norway:22682
##kle:22683
noble:22685
sementara:22686
bedeutung:22687
inne:22689
ovaj:22690
moyen:22691
sante:22692
saesneg:22693
spons:22694
seleccion:22695
skupina:22696
kalla:22698
underground:22700
kenneth:22704
partito:22706
popolazione:22709
##ffe:22710
ven:22712
demande:22713
pete:22714
gminy:22718
reseau:22719
##tettiin:22720
posterior:22721
flash:22722
teilweise:22723
precedente:22724
##kommen:22726
ljudi:22727
##ceni:22728
venezia:22730
cemetery:22731
diffusion:22732
##punkt:22733
govori:22738
outre:22739
##rda:22741
ibi:22743
permite:22744
menyebabkan:22745
barrio:22746
doc:22747
bologna:22751
cancao:22753
##dem:22754
armes:22756
fundacion:22758
stazione:22759
tecnico:22760
kraj:22761
bateria:22762
journey:22766
appear:22767
sociales:22768
fernsehserie:22770
acest:22772
contributions:22773
tie:22774
progress:22777
kleinen:22779
kich:22780
baptiste:22781
##km:22782
vay:22783
vegada:22784
werken:22785
eux:22786
bulunan:22787
##inn:22789
progetto:22791
prej:22792
soundtrack:22793
exhibition:22795
autour:22796
greg:22798
giorni:22800
foljande:22801
mama:22802
flat:22803
##mme:22804
##rich:22806
##oj:22809
identity:22810
saying:22811
vous:22812
##lama:22813
flag:22814
arrived:22817
seo:22818
kuni:22819
malta:22821
instruments:22822
##mark:22824
##bility:22826
somit:22827
siste:22828
resultats:22829
enemy:22830
pista:22831
acuerdo:22833
portrait:22835
gikk:22836
divided:22837
sec:22838
##psis:22839
leonardo:22840
wellington:22841
sezonie:22842
orta:22844
harvey:22845
nhom:22847
vescovo:22849
legislative:22850
romans:22851
signe:22852
agricultural:22853
clarke:22854
raya:22856
movimiento:22857
medium:22858
malo:22859
##fahrt:22862
document:22863
druge:22864
headquarters:22866
nevada:22867
zeitschrift:22868
##naire:22870
rebecca:22871
koju:22872
##ball:22874
longo:22875
institutions:22876
##sao:22877
masyarakat:22878
norwegian:22879
##elen:22881
objet:22882
##nit:22883
aumento:22886
alrededor:22890
punti:22891
##usta:22892
posizione:22893
landes:22897
##vno:22899
daruber:22900
tbs:22901
dedicated:22902
##tiv:22904
londra:22907
nimi:22908
##logy:22911
skrev:22912
chieu:22913
##zko:22914
##mak:22915
matter:22917
prie:22918
literary:22919
except:22920
bala:22921
##uen:22922
timp:22923
fallen:22924
vins:22927
umumiy:22928
standards:22929
vader:22931
brain:22932
celu:22933
gio:22935
riga:22937
mia:22938
madison:22939
musim:22940
zilak:22942
diario:22943
proses:22944
##stvi:22947
count:22949
zien:22950
diferents:22953
minutos:22955
##strom:22956
petersburg:22957
erster:22959
##iter:22962
documentary:22963
roedd:22967
tage:22969
utbredningsomrade:22970
defence:22973
servizio:22974
haver:22976
ucraineana:22977
americaine:22980
bela:22982
##wanie:22983
probably:22984
partire:22988
##czy:22990
combined:22991
##ters:22992
occidentale:22995
suya:22996
dios:22997
##ieron:22998
rangers:23000
departementet:23003
arkansas:23004
creacion:23007
truth:23008
ajuda:23009
rapid:23010
dne:23011
handel:23014
sh:23015
hom:23016
reihe:23017
posible:23018
##kunde:23020
perfect:23021
zehn:23023
##tamente:23025
##rov:23027
multimedia:23030
##base:23031
derfor:23032
##aran:23033
sastav:23036
raul:23037
heroes:23038
officially:23040
philipp:23041
samym:23045
deputy:23047
positions:23048
thao:23050
lack:23051
algo:23053
##ame:23054
certaines:23055
awal:23056
repubblica:23057
##iny:23058
actriz:23059
##ilo:23060
toho:23061
immediately:23062
duque:23063
reason:23065
bestelako:23066
muitos:23069
boat:23071
##szych:23072
abs:23073
sac:23075
##our:23076
educational:23077
outra:23078
birmingham:23079
powers:23080
polskiej:23082
banco:23083
giong:23084
intel:23086
provence:23087
skupiny:23088
communities:23089
gauche:23090
veroffentlicht:23092
cole:23093
canciones:23096
##dou:23097
##tai:23098
sadrzi:23099
cour:23100
##orn:23101
coll:23103
politiques:23104
ip:23106
xbox:23107
ipac:23109
orientale:23110
hunt:23111
ataque:23114
dempues:23115
mineral:23116
juegos:23118
particulier:23120
britannique:23122
javier:23123
dienst:23124
bands:23125
jefferson:23126
carol:23128
turkish:23130
bandet:23133
telefon:23134
rodziny:23135
lainnya:23136
ove:23137
oficina:23138
mus:23139
bosnia:23140
alfa:23141
commonly:23143
omborida:23144
dis:23145
sal:23146
##enta:23147
growing:23148
letzte:23149
mate:23150
fk:23151
cotes:23152
artikkelen:23154
tidigare:23155
nonostante:23156
virgin:23157
background:23158
marx:23159
tych:23160
tecnologia:23164
companion:23165
moet:23166
decreto:23168
vant:23170
noel:23171
vale:23172
luvulla:23174
##owi:23175
##sha:23176
realizar:23177
hrvatska:23178
sogn:23179
diferencia:23181
presents:23182
##zzi:23183
dikenal:23184
irak:23185
pikeun:23186
tentang:23187
designated:23191
##schule:23192
bukit:23193
jung:23194
wojewodztwie:23195
fest:23196
buku:23197
chiec:23198
bogota:23199
vieta:23204
vitin:23206
vastaan:23207
kallt:23208
reform:23209
swiss:23210
lanh:23211
##jacych:23215
francji:23216
##ence:23218
fronte:23219
egen:23220
trainer:23222
karo:23223
bahia:23224
everything:23225
innan:23227
negative:23228
leiden:23229
escrita:23230
situacion:23231
viel:23232
matte:23233
onderstaande:23235
vallee:23237
emile:23238
gitar:23239
chamado:23240
##kirche:23241
wings:23242
abord:23243
zaradi:23244
trad:23246
vehicle:23247
angol:23248
lie:23249
dni:23251
podria:23254
classifica:23255
foster:23257
mercury:23258
becomes:23259
jury:23260
shume:23261
mason:23263
laszlo:23264
boleh:23265
zonas:23267
munster:23269
purpose:23272
selain:23274
umum:23279
neki:23280
swiatowej:23283
folgte:23284
handbook:23285
##icio:23286
nhi:23287
residence:23289
cena:23290
nde:23292
tik:23293
jin:23294
twin:23295
dado:23297
##czna:23298
suit:23299
ks:23300
##cima:23303
zaragoza:23306
maire:23307
##rno:23310
geological:23311
##gate:23313
mental:23314
regiunea:23315
nordvastra:23317
florence:23318
ghost:23319
avrinningsomradet:23320
##hme:23321
bigarren:23323
borough:23326
giving:23327
grupe:23328
ee:23329
globe:23330
mathematics:23331
##ece:23332
feel:23333
brasilia:23334
squad:23336
##vara:23338
yksi:23339
argentino:23340
malgre:23341
##wick:23342
etwas:23345
haaptacteuren:23347
ziskal:23348
relative:23350
raf:23351
felt:23354
typically:23355
baina:23358
spieler:23361
transferred:23362
verdi:23363
plantes:23364
##ldi:23367
toledo:23369
surtout:23370
kirke:23372
yemen:23374
altal:23375
structures:23376
##ttes:23377
bardzo:23378
ihnen:23379
maggior:23381
relation:23382
mewn:23386
##etti:23387
olaraq:23392
##urile:23394
cura:23396
amy:23397
gone:23398
rogers:23399
formes:23400
recursos:23402
entro:23403
olup:23406
schleswig:23410
nash:23411
gerhard:23412
presse:23413
##zte:23415
pyrenees:23416
claire:23417
ferro:23418
seoul:23422
manhattan:23423
corner:23424
druga:23425
verenigde:23426
##tych:23427
##zona:23428
##park:23429
jenis:23430
jednym:23431
ideal:23432
##inta:23434
meisten:23435
nuit:23437
ambito:23438
speciale:23439
soest:23441
attore:23442
sullivan:23443
##anu:23444
vennero:23445
knjiga:23446
fara:23447
rive:23451
renamed:23453
##bit:23454
asl:23455
ons:23456
premios:23457
painting:23458
##cii:23459
amerikanske:23460
##skap:23461
urbo:23462
koning:23463
##gna:23464
vielen:23468
##icht:23470
##uch:23471
fundada:23472
protected:23473
haufig:23474
##bora:23477
##cow:23478
sastavu:23479
grasmarker:23481
xxi:23482
##jske:23483
spin:23484
meget:23485
oni:23487
##zeko:23489
localizada:23490
anniversary:23491
americans:23492
oriente:23493
##kach:23494
holmes:23495
kommen:23496
civile:23498
pool:23499
unui:23500
volumes:23501
pain:23502
kapal:23503
polychaeta:23504
mucho:23505
shortly:23506
ability:23509
hektar:23510
divisio:23512
##uses:23513
wells:23514
programming:23515
objekata:23516
fonte:23517
pos:23518
binne:23519
##zata:23521
parking:23523
salle:23525
##rana:23527
resta:23528
dusseldorf:23529
obdobi:23530
sest:23531
pemerintahan:23532
teaching:23533
##liste:23537
komen:23540
tiger:23541
##ovani:23547
relief:23549
gh:23550
southeast:23551
##este:23552
lich:23554
##iek:23556
aurait:23557
##ein:23558
quickly:23559
lt:23560
kb:23561
shanghai:23563
facilities:23565
##uli:23566
##side:23567
steeds:23568
##ots:23570
##nci:23571
hie:23572
equipements:23573
persian:23574
bumi:23575
rice:23576
nm:23577
##ised:23578
io:23579
acqua:23583
brukt:23584
pure:23585
participar:23586
gyda:23587
twitter:23588
fashion:23589
ahmad:23590
iako:23591
designer:23593
##mina:23594
titled:23595
artistas:23596
beck:23597
muzik:23599
weight:23602
ore:23606
kant:23607
ordered:23608
##hir:23609
wake:23612
baixa:23613
esercito:23614
needed:23615
torno:23617
##rom:23619
pubblico:23620
##lam:23621
koch:23622
spd:23623
pris:23624
heinz:23625
##dh:23626
vele:23627
bahn:23629
##owane:23630
britanica:23632
fecha:23633
objetivo:23636
materia:23637
neven:23638
catedral:23639
accion:23641
##off:23643
gymnasium:23644
seule:23645
auteurs:23649
grew:23650
##die:23652
christoph:23653
kiem:23654
arsenal:23656
faculty:23657
tumani:23658
yale:23659
owner:23661
##tvi:23662
alejandro:23663
waarbij:23664
eagle:23666
reservoir:23667
accident:23668
unde:23669
michele:23670
australie:23673
sixth:23676
lettres:23677
casto:23678
giovane:23680
##tata:23681
njegova:23682
mondial:23683
zwiazku:23685
hc:23686
singolo:23687
quarter:23688
runde:23689
camino:23690
##vina:23691
bangladesh:23692
ceo:23693
falta:23694
distriktet:23696
##tir:23697
##verk:23698
avere:23700
direktor:23702
rekord:23706
freshwater:23707
##tten:23708
##ekt:23709
##time:23710
target:23714
symphony:23716
alexandra:23718
jih:23719
caracteristicas:23720
algumas:23721
##cle:23722
unio:23729
nisu:23731
##ense:23732
lezi:23733
session:23734
sudan:23735
asp:23736
annak:23737
nadat:23739
condition:23740
##slag:23742
##zor:23744
gestion:23745
posisyon:23746
administrativa:23747
evitar:23748
scena:23751
##ndose:23752
hierdie:23753
davies:23754
russe:23755
sezone:23756
incluyendo:23758
cor:23759
olur:23761
eski:23764
luogo:23767
twice:23769
abdul:23771
follows:23772
mhz:23777
pasar:23778
hebbt:23780
actually:23785
udara:23787
sel:23789
##uksen:23790
causes:23791
##nega:23792
danych:23796
nominated:23797
kids:23800
##iki:23802
##ncies:23804
etude:23806
tamin:23807
oude:23809
kha:23810
kell:23812
amerikanischen:23813
credit:23814
planned:23815
chamber:23816
brandenburg:23821
edifici:23822
dood:23825
muchas:23826
mulai:23827
cando:23828
offers:23829
christine:23830
piazza:23832
##sze:23834
##gard:23835
##uji:23836
pintura:23837
stella:23838
karya:23839
quais:23840
cent:23841
rita:23842
ehe:23843
organized:23845
##cza:23846
##rine:23848
##seite:23849
arco:23850
laget:23851
frem:23852
trend:23853
conducted:23854
##gren:23857
##iens:23859
igen:23861
menurut:23863
continuo:23864
avrebbe:23865
##ggi:23866
defined:23868
premieres:23870
offer:23872
taxonomische:23873
##osti:23874
participo:23875
##uf:23877
blog:23878
##assa:23881
stanford:23883
existencia:23885
produktion:23886
##vao:23887
poble:23889
zeigt:23891
siehe:23892
marcos:23893
bruxelles:23896
drew:23897
jai:23898
testament:23899
##uju:23900
phillips:23901
sezonu:23902
##oru:23903
constant:23905
##nymi:23907
ahli:23908
string:23910
clase:23912
bron:23913
ik:23916
##sman:23917
##dna:23919
heidelberg:23921
acts:23923
##aal:23924
prodotto:23926
thomson:23927
bestaan:23928
skola:23929
madagascar:23930
desta:23931
cable:23932
##nc:23933
pha:23934
sydlig:23935
militares:23936
tomo:23940
situata:23941
mediteranyo:23942
daarna:23943
varie:23947
monster:23948
trzy:23950
##fica:23951
##twa:23954
aqui:23955
##rati:23957
partida:23958
portuguesa:23959
clinton:23960
audience:23961
radu:23962
adventure:23965
##ders:23967
cukuik:23968
dee:23970
tua:23972
resource:23973
differents:23975
elementary:23976
sted:23977
##iou:23979
grootste:23980
##vany:23981
annonce:23982
variable:23984
dafur:23986
asteroidi:23988
##chia:23989
fransan:23990
##name:23993
profit:23994
barubah:23995
##ars:23996
squadre:23997
experimental:23998
writers:24000
enorme:24002
dagen:24003
devil:24004
destroyed:24005
sasuatu:24009
comecou:24010
pacahan:24012
##uu:24015
bros:24016
luxembourg:24017
galaxies:24018
esglesia:24020
pau:24021
xavier:24022
estao:24023
follow:24024
fear:24027
aaron:24028
midi:24029
moglich:24030
pointe:24031
menys:24032
stream:24034
##erer:24035
zuge:24036
abgerufen:24037
casas:24038
owen:24040
##anas:24041
giu:24043
removed:24044
cabinet:24045
damage:24046
footballer:24048
spolu:24049
contiene:24051
gunther:24052
##tako:24053
print:24054
szama:24055
trees:24056
rival:24057
communium:24058
zhang:24059
collected:24060
apertura:24066
zoon:24067
##tza:24068
##urus:24069
lucia:24070
comunidad:24073
rachel:24076
angleterre:24078
parast:24079
##tna:24080
ym:24084
evi:24085
dij:24086
eskualdean:24087
composer:24088
sid:24089
materiale:24091
hinter:24092
yards:24093
intended:24094
naseljeno:24095
##ismus:24096
nordostra:24097
yi:24098
acres:24099
##cin:24100
acta:24102
virtual:24103
opus:24107
##tava:24110
maioria:24112
ensin:24113
ginhatag:24114
pagkayana:24115
humans:24116
finalement:24117
ruth:24118
straight:24119
angle:24120
chalcidoidea:24121
producao:24126
ity:24127
fonction:24128
##cios:24129
architect:24130
baik:24135
reporter:24136
podia:24138
encuentran:24140
itarong:24141
##rske:24142
##mata:24143
coup:24144
pittsburgh:24145
##ilen:24146
servicios:24147
##eng:24148
hivatalos:24151
mivel:24152
regiji:24153
sydvastra:24155
rozlohu:24156
zeitung:24157
##par:24158
englisch:24159
kongo:24160
lied:24161
pracy:24162
##rza:24163
##mektedir:24164
unei:24165
kid:24166
accepted:24168
resolution:24169
pelasi:24170
hungarian:24172
buffalo:24173
##gua:24174
palma:24175
laten:24178
##jna:24179
deportivo:24181
cinta:24182
mintaqasida:24183
bara:24184
dawn:24185
ec:24186
industries:24187
wasser:24188
jedno:24189
patri:24191
gino:24193
kantonen:24197
ncaa:24198
##vine:24199
##nae:24200
axe:24201
firenze:24202
greco:24203
amount:24205
conquista:24206
toto:24208
critique:24209
zuid:24210
deste:24213
##veni:24214
##gado:24216
stanie:24218
artistes:24220
defeat:24222
##maal:24224
##oo:24227
parigi:24228
##form:24229
enfin:24231
domain:24232
realizo:24233
deriva:24234
##skou:24236
acces:24238
granada:24239
sarebbe:24240
tandis:24241
nice:24242
fransk:24243
tredje:24245
moskva:24246
europeo:24248
pinyin:24249
meio:24250
##igi:24251
estaban:24253
completa:24254
koh:24255
tipos:24256
wir:24257
##mesi:24259
arrive:24261
fisher:24262
presenti:24263
participation:24264
munich:24266
##ixen:24267
blake:24269
miesto:24273
thieu:24274
bible:24276
ngoi:24282
##eerd:24283
biological:24284
##uso:24287
dome:24288
votes:24289
terenie:24292
okresie:24293
participated:24294
teheran:24295
bmw:24296
opcine:24297
plate:24298
effective:24300
##hia:24301
##hos:24302
continues:24303
representative:24304
nda:24305
idade:24306
llegar:24308
##sma:24309
machte:24310
spot:24311
normandie:24312
cabeza:24314
hiru:24315
files:24316
waarvan:24317
begins:24318
goed:24319
crystal:24320
stellte:24322
dados:24325
folgen:24326
aquel:24327
valo:24328
dirige:24329
gminie:24330
widely:24331
##kova:24334
##ungan:24335
varos:24336
lugares:24338
##med:24341
multe:24342
iyi:24343
weber:24344
##ckt:24345
vainqueur:24346
xe:24347
mina:24350
mines:24351
parlamento:24353
##zal:24354
massimo:24356
walt:24357
stevens:24358
edited:24359
laboratory:24361
finance:24363
armed:24365
##buch:24366
estuvo:24367
standing:24368
##fte:24369
##idi:24370
##gruppe:24371
liberty:24372
principais:24373
jeanne:24374
##rot:24376
eftir:24378
viola:24379
billion:24382
##tul:24383
weather:24387
ine:24389
zelf:24390
younger:24392
##lay:24393
symbol:24395
##ovala:24396
chay:24398
ebenso:24399
frae:24400
kjer:24402
nino:24403
vorm:24405
carbon:24407
internal:24408
claims:24409
sprache:24411
ova:24412
##fat:24413
##wel:24414
##ringen:24415
##hkan:24416
terdiri:24418
somme:24419
rosario:24420
##itu:24422
##nau:24423
karen:24425
britanico:24426
##ln:24428
##iju:24429
amazon:24432
bed:24433
##jonen:24434
manh:24435
chitarra:24436
numa:24437
nuevos:24438
paula:24439
kominote:24440
vina:24441
gives:24442
hessen:24444
alonso:24445
hohen:24446
sammlung:24447
professeur:24449
maitre:24451
teritorija:24453
jardin:24454
gelang:24455
##git:24457
assigned:24459
##rida:24463
avery:24465
##onen:24466
##tado:24467
jeunes:24469
##eks:24470
##lav:24472
ioc:24473
luar:24474
legge:24476
##lata:24477
##anse:24478
valja:24479
wilde:24480
saman:24482
##ws:24484
alongside:24485
radical:24486
jupiter:24487
plane:24488
shop:24489
##eit:24490
##iec:24491
haven:24492
helsingfors:24495
enrico:24496
shi:24497
etazonia:24498
##igung:24499
titol:24503
ira:24504
okenklimat:24506
svoju:24509
vide:24511
trop:24512
hiduik:24514
##koa:24515
mozart:24518
##iten:24519
simpson:24523
retrouve:24524
##yne:24526
message:24527
moglie:24530
update:24531
marathon:24532
##dott:24533
exercito:24534
facility:24536
monica:24540
bom:24543
eve:24544
gouverneur:24545
claudio:24546
armstrong:24547
gehoren:24548
monuments:24549
kraft:24550
spread:24558
tron:24559
ibrahim:24560
odnosno:24562
captured:24563
pwovens:24564
terror:24565
besuchte:24566
prava:24567
porem:24569
escrito:24570
##mana:24571
segona:24575
edmund:24579
serves:24580
mida:24581
maniere:24584
nor:24585
uomini:24586
versao:24588
italiji:24589
cr:24590
##mene:24592
pace:24593
chet:24595
strike:24596
makanan:24598
objek:24600
mad:24603
romani:24604
##krat:24606
insa:24608
erich:24609
spelen:24611
kapuloan:24613
##nato:24614
##eet:24615
##ents:24617
nong:24618
##vien:24619
marino:24620
purchased:24621
sehen:24622
ilha:24624
copies:24625
eigene:24630
estrella:24631
geral:24632
slekten:24633
teu:24634
wzgledem:24635
medzi:24636
embora:24637
nagrada:24640
graduate:24641
grove:24642
canberra:24644
formule:24645
indo:24648
tama:24649
territorial:24650
castilla:24652
bryan:24653
##fie:24655
manufacturing:24657
worldwide:24658
worrn:24660
cop:24661
vastlig:24662
adopted:24663
##ioni:24664
kiedy:24665
jeste:24666
##sum:24667
wong:24669
##inas:24672
##eza:24673
##gir:24674
dt:24675
zemlje:24676
##esti:24679
rand:24680
##rena:24683
compared:24685
asa:24687
potom:24689
rank:24690
organizations:24691
liliopsida:24693
agama:24694
speech:24697
pale:24699
campeon:24700
agricoles:24702
##tida:24704
wins:24706
leste:24707
mesure:24708
##mate:24709
hinaus:24710
ucraina:24712
effort:24713
category:24716
stellen:24717
szent:24718
marin:24721
bristol:24724
hollow:24726
minimum:24727
agnes:24729
setzte:24730
robot:24731
romeo:24733
handelt:24734
chase:24735
madame:24737
hungary:24738
woods:24739
cardinale:24740
##nova:24742
boca:24743
drugim:24746
elecciones:24747
passou:24748
##liu:24751
sok:24752
etape:24755
gibson:24756
quant:24757
alive:24758
##nea:24760
dreams:24763
##hou:24764
voie:24765
supply:24766
tipus:24767
kolme:24769
metodo:24770
congres:24772
terres:24774
alberta:24777
begon:24779
socialista:24782
tijekom:24783
fuerzas:24784
##vila:24785
todd:24786
staden:24787
honda:24790
check:24792
xuong:24793
exit:24794
##angan:24795
##iar:24796
obtient:24797
interieur:24798
##skoj:24799
##bung:24802
yng:24803
lietuviu:24804
obtenir:24805
easy:24806
##bina:24808
ofta:24810
lit:24811
befinden:24813
majoritatea:24815
parla:24816
simply:24817
limit:24818
enige:24819
##cznej:24823
##wagen:24825
dylan:24826
suomessa:24827
##lica:24828
ranked:24830
##ppen:24831
rex:24832
viktor:24834
shadow:24835
gad:24836
mentioned:24838
strecke:24840
##jal:24842
ensimmaisen:24843
voltak:24846
posta:24847
vuodesta:24848
blu:24849
enterprise:24850
##zno:24852
performing:24854
dry:24855
pmc:24856
quarto:24857
mah:24858
moc:24859
tilbake:24860
nebraska:24861
completo:24862
dirigida:24863
##rang:24864
sanger:24865
prasident:24866
##tato:24867
passo:24869
antiguo:24871
noto:24872
tum:24875
##gebiet:24877
fiat:24878
fece:24879
nouveaux:24880
isi:24883
wanita:24884
##oria:24885
forever:24886
horror:24888
buna:24889
##bad:24891
bahnhof:24894
declared:24895
perioden:24896
aves:24898
olmusdur:24900
toshkent:24903
koko:24906
centru:24907
siya:24909
tato:24912
petits:24914
sudah:24915
chapel:24916
bentuk:24917
linii:24918
finish:24919
empresas:24924
##uil:24925
poctu:24928
pearl:24929
mensen:24931
##rah:24933
user:24934
lever:24935
gleichen:24936
resistencia:24939
aquestes:24940
liebe:24941
maju:24943
##yar:24944
voru:24945
patients:24946
ritorno:24948
##pat:24949
dorp:24950
##bok:24951
difficult:24952
saints:24953
tr:24956
dadurch:24957
trek:24959
poczatku:24960
schrieb:24961
amigos:24963
touch:24965
linnaeus:24966
derechos:24967
wojewodztwa:24968
faz:24969
##yev:24970
mills:24972
lyrics:24973
##ave:24974
revolucion:24976
investigation:24978
agricultura:24980
estimated:24981
saturday:24989
rocky:24990
nagusia:24992
paraguay:24993
sett:24995
ind:24996
utrecht:24997
formen:24999
tornar:25000
jump:25001
fiume:25002
ugy:25003
cannot:25004
##isht:25006
spiele:25009
vyvoj:25010
jet:25011
##amen:25014
forza:25016
maya:25019
##lad:25020
frederik:25021
montre:25022
kvadrat:25023
europaischen:25024
bernhard:25028
cassini:25029
##liku:25030
##tani:25031
sviluppo:25032
paid:25033
literatur:25035
einigen:25036
ilcesine:25037
lequel:25040
##cation:25041
consejo:25042
looking:25044
killing:25045
legales:25046
auflage:25048
sum:25049
classement:25051
##sant:25053
pues:25054
angela:25057
##sey:25058
remain:25059
colegio:25060
incident:25061
##uden:25062
nui:25063
figlia:25064
##nir:25065
##far:25067
##rf:25068
ride:25069
edouard:25070
greece:25071
launch:25072
hefyd:25073
hosted:25074
pocas:25075
tibet:25076
##kli:25078
lah:25079
possede:25080
sieglu:25081
##rten:25084
##zett:25085
magdalena:25086
lao:25090
bordeaux:25091
klubben:25092
piccolo:25096
systematic:25097
agora:25098
connection:25099
##fication:25100
responsable:25102
##nad:25103
recordings:25104
lokale:25105
pluse:25106
ota:25107
stammt:25108
oba:25109
plupart:25110
lands:25111
gard:25112
##ip:25113
affaires:25116
##nata:25117
gp:25118
gil:25119
atualmente:25120
usd:25126
armii:25127
##war:25129
zari:25130
provinces:25134
manana:25137
peldaul:25138
siete:25142
motivo:25143
##niem:25144
cv:25145
adelaide:25146
sides:25147
frac:25148
marseille:25150
skalbaggsart:25151
ratio:25152
aprilis:25154
arabia:25155
apesar:25157
bunda:25158
jolloin:25162
powell:25163
solid:25164
really:25165
svojim:25166
revenuo:25168
##iei:25171
satt:25175
kauden:25176
##ahan:25178
ferenc:25179
capitan:25180
chain:25183
primavera:25184
grans:25187
nhiet:25190
bald:25191
storico:25192
display:25193
movies:25194
samhallen:25195
##edi:25196
letras:25197
quyet:25198
pu:25200
disputa:25201
homo:25204
##gde:25205
rotterdam:25207
beauty:25209
possibile:25210
portland:25214
stile:25215
luat:25216
##gens:25218
umur:25219
##lek:25221
sijaitsee:25222
representatives:25223
uci:25225
austro:25226
integral:25228
ultimate:25229
honek:25230
##entes:25231
##ffen:25232
admiral:25233
allmusic:25234
arma:25235
kamp:25237
sugar:25238
wanneer:25240
tutta:25241
fundamental:25242
chemin:25243
centra:25245
filma:25246
problemes:25248
gain:25249
chem:25250
wildlife:25251
dritten:25254
combate:25255
nashrida:25259
oor:25260
considere:25261
terrain:25263
chair:25264
obyvatel:25266
okres:25267
traite:25269
fonde:25270
##lere:25272
##gat:25273
reaction:25274
ker:25275
angels:25277
vega:25278
thema:25279
curtis:25280
##orszag:25281
duty:25282
##lagt:25285
begge:25286
zeme:25287
hver:25290
seluruh:25293
##njem:25295
iras:25296
##nese:25300
lovskog:25301
##inae:25302
genutzt:25304
minuta:25305
navarra:25306
peyi:25308
ways:25309
livro:25310
##ienne:25311
expanded:25312
##stellen:25313
sentido:25314
doktor:25315
richmond:25316
transporte:25317
##mientu:25318
attacks:25321
titular:25325
##weise:25326
vehicles:25327
espace:25328
entstanden:25330
visit:25332
nielsen:25333
staan:25335
buried:25336
##wang:25337
cesto:25338
stracker:25339
incluindo:25346
planeti:25347
afrikaanse:25349
indie:25351
inspired:25352
ballet:25353
poate:25354
appele:25355
##air:25356
evening:25357
liberation:25358
##ining:25359
avion:25361
miranda:25364
recognized:25366
tillsammans:25367
solution:25370
nii:25374
hampshire:25376
household:25377
##vus:25378
##horn:25379
##roy:25380
##eret:25381
largely:25382
mponina:25384
##dere:25385
papua:25386
stehen:25387
pia:25388
iaitu:25390
chose:25391
mayu:25393
##llas:25394
weiterhin:25395
gained:25396
##sne:25397
sah:25398
toulouse:25399
##tett:25400
orders:25401
niger:25402
##rou:25403
ae:25405
historian:25407
##oku:25408
android:25409
sl:25410
##gor:25411
inlandsklimat:25413
mw:25416
marre:25418
poems:25419
detective:25421
reduced:25422
albumu:25425
sudlich:25426
vue:25427
kroz:25429
datu:25430
enfant:25432
syria:25433
##owana:25434
gebaseerd:25436
respectively:25438
postal:25440
zivot:25442
liet:25443
italijanski:25445
emily:25446
sette:25447
obwohl:25448
etablissements:25449
erreicht:25450
comercio:25451
##mena:25452
principalement:25454
##ctus:25455
##ojen:25456
covers:25458
juny:25460
markt:25462
ge:25463
exposition:25465
weniger:25466
##qi:25467
##elli:25469
communist:25472
pierwsza:25473
titles:25476
vede:25477
##chu:25479
jura:25480
linn:25481
eredeti:25486
citizens:25487
ziel:25488
akhir:25489
sequence:25490
nero:25493
canzone:25494
vertrag:25496
catalan:25498
emission:25501
maret:25504
##nyt:25505
feu:25506
conservative:25508
generalmente:25510
##lic:25512
##rende:25513
bahawa:25515
islas:25516
savannskog:25518
sd:25520
##iat:25523
bieu:25525
ahmed:25526
fruit:25527
mcg:25529
programas:25530
##lagen:25531
tanjung:25534
minuten:25537
##yes:25538
tournee:25540
##umu:25541
categorie:25544
yli:25545
##stone:25546
rivers:25549
membri:25550
realizado:25551
manuscript:25552
pequenos:25555
lasst:25556
jozsef:25559
unu:25561
constitue:25563
schweizer:25564
##bou:25567
emilia:25568
passes:25569
##nita:25571
tram:25574
patricia:25575
ah:25577
dynasty:25580
podataka:25581
stefano:25583
serikat:25584
geography:25585
##oe:25587
manusia:25588
plass:25589
advance:25590
ulrich:25591
edicao:25594
gaat:25595
kula:25597
rusa:25598
penn:25600
verloren:25601
rajono:25603
egiten:25604
noche:25605
##rita:25608
##erie:25610
ilin:25611
orient:25613
dvije:25614
zichligi:25615
stellt:25616
cathedral:25617
entreprise:25618
strand:25620
americke:25621
usage:25623
amigo:25624
codes:25625
hlavni:25626
paositra:25627
##cata:25628
jessica:25629
teraka:25630
composto:25631
vogel:25632
edit:25635
construir:25636
medien:25637
tyler:25640
elott:25641
modele:25642
##atus:25643
quinto:25645
bangkok:25650
theodore:25653
junction:25655
funcion:25656
mean:25659
##rden:25661
mph:25663
portuguese:25666
brasilien:25668
imao:25669
descriptions:25671
##rile:25672
singel:25673
##eru:25676
burada:25677
tribu:25679
suomalainen:25680
langt:25681
socorro:25682
aastatel:25683
naturlig:25684
goc:25685
##eket:25686
adventures:25687
dnia:25688
##lauf:25689
propose:25690
lhe:25697
importants:25699
niem:25700
ending:25706
sil:25708
starring:25709
##chter:25711
menteri:25713
nodc:25715
wielu:25716
birinchi:25719
##mai:25720
differentes:25721
heures:25722
gai:25723
##ogo:25724
##yat:25725
toutefois:25726
##cca:25727
##jai:25729
sprint:25730
caracteristiques:25731
##nelle:25732
hija:25734
gebaut:25735
maig:25736
giant:25737
pedra:25738
##tsi:25739
##rao:25742
##lee:25745
presidential:25746
arme:25748
##ebb:25749
chiem:25750
##agi:25751
palmer:25752
harald:25755
##zej:25756
famoso:25757
soldats:25758
agreed:25761
fuerte:25762
##alo:25764
historica:25765
yves:25766
mara:25767
ezen:25769
annie:25771
equivalent:25775
ubicada:25776
dando:25777
suivante:25779
mitglieder:25781
abbaye:25783
##uni:25784
tokom:25786
routes:25787
italya:25788
avaient:25789
megyeben:25790
##eux:25791
##pon:25792
ming:25793
folgende:25795
formada:25796
wurdt:25797
kinshasa:25799
muitas:25800
composta:25805
##eze:25806
seal:25807
ware:25810
##istica:25811
##jeni:25814
conrad:25815
kaodim:25816
##kse:25817
desormais:25818
hardy:25819
##kami:25821
insektsart:25822
hk:25825
denmark:25826
perque:25827
israeli:25828
pair:25829
euros:25832
deutlich:25834
fungi:25835
euskal:25836
maka:25837
hermano:25838
someone:25839
worth:25840
komot:25842
municipios:25845
svezi:25846
huis:25847
omrade:25848
southwest:25849
villes:25850
objects:25851
schneider:25853
terbang:25854
fata:25856
metropolitana:25859
kaimas:25861
talatak:25863
providing:25864
##oedd:25865
locales:25866
kekere:25867
comunista:25870
dala:25871
presiden:25874
##ogy:25875
uga:25878
livres:25879
taught:25880
pintor:25881
honduras:25882
wiki:25883
##minister:25884
armata:25885
boss:25886
coz:25889
##aste:25890
##pte:25892
##mmer:25893
chambre:25895
wenig:25896
expected:25897
situated:25898
voit:25902
rez:25903
ovest:25904
cohen:25905
siedziba:25907
hoje:25908
losing:25909
leslie:25910
fond:25912
bude:25913
germain:25915
gets:25917
compilation:25918
huit:25919
augusto:25920
millor:25921
##zac:25922
##rare:25923
visible:25924
bennett:25925
bastante:25929
gente:25930
saudi:25931
sporting:25932
luca:25933
geometridae:25935
entra:25937
##jima:25938
cita:25940
zas:25941
##mentos:25942
newly:25944
##cco:25945
##stellung:25946
lapangan:25949
##lerini:25950
oldugunu:25951
##uce:25952
norton:25953
reader:25954
nassau:25956
##cm:25960
royale:25961
dil:25962
ends:25963
gleichzeitig:25964
meilleure:25965
##lerinde:25967
cortes:25968
needs:25970
occurred:25971
ezert:25972
empezo:25973
spada:25974
amerikanischer:25975
hijos:25976
alcalde:25978
supporting:25979
##sburg:25980
task:25981
##jom:25982
jeszcze:25983
##eh:25984
intitule:25985
saha:25988
emi:25990
pastor:25991
gener:25992
aufgenommen:25994
collections:25995
abitancc:25996
##eln:25998
hvis:25999
nordlich:26000
##bourg:26001
busay:26002
occupation:26005
kojima:26008
diesel:26009
##tha:26010
nemzeti:26011
contribution:26012
entomological:26013
siaures:26015
ekonomi:26016
##ktor:26017
##gaan:26018
ponad:26021
zdroje:26022
##rias:26024
contrato:26025
genel:26026
peste:26027
##kken:26029
seri:26030
wowczas:26031
bibcode:26032
kleiner:26033
identified:26034
fleste:26035
kosovo:26038
write:26039
kultura:26041
hilfe:26042
##urt:26043
anglice:26044
grundete:26046
mp:26047
seks:26048
##vole:26049
kura:26050
jeremy:26051
oorlog:26052
mitja:26054
kaayong:26055
outstanding:26056
##stra:26057
##akan:26059
lec:26061
##nig:26063
unidades:26065
kept:26067
fazer:26068
debate:26072
negra:26073
##enden:26075
eleve:26077
##moto:26079
cave:26080
texto:26081
offensive:26082
##kseen:26083
ottoman:26085
poznat:26086
actrice:26087
drugih:26088
mika:26089
igbaja:26090
##huis:26091
##bla:26094
pierwsze:26095
##icas:26096
tech:26097
zycia:26099
##sid:26101
linha:26103
##sida:26104
fratello:26107
pormasyon:26108
disponible:26112
switzerland:26114
courses:26115
dermed:26116
rhywogaeth:26117
##fort:26120
kerana:26121
##cine:26123
mundu:26124
ego:26125
mining:26127
orlando:26129
hiji:26131
petra:26135
##eke:26136
slag:26137
dominio:26139
missions:26140
cdata:26141
lato:26142
suivant:26144
ibu:26145
stalin:26146
fuel:26150
arba:26151
##yor:26152
alus:26153
curso:26154
olmustur:26155
itunes:26157
ski:26158
helmut:26161
##flugor:26162
variante:26163
graves:26166
alemana:26167
martha:26168
shell:26170
okoli:26171
queda:26173
##eel:26175
legenda:26177
mol:26180
enter:26181
montenegro:26182
costruzione:26183
##sun:26184
udalerria:26185
pertencente:26186
medida:26187
photo:26188
receive:26190
ceinture:26191
hopkins:26192
moyenne:26194
oak:26195
##odi:26197
niin:26198
benannt:26200
morir:26201
contrario:26203
masoandro:26204
##enu:26206
##dek:26207
funkcje:26208
officials:26209
sure:26210
amas:26211
lys:26212
fekk:26213
##rlo:26214
concello:26215
##ob:26218
pacifico:26219
alam:26220
laba:26221
mem:26222
##laan:26223
pascal:26224
lakes:26225
ouro:26226
practica:26227
tagja:26228
zato:26229
patria:26231
existen:26234
luce:26236
darwin:26237
cinc:26238
vit:26240
unes:26241
##pers:26242
setembre:26244
entanto:26245
populaire:26247
[...]
